#include "magic_wand_model_data.h"


// We need to keep the data array aligned on some architectures.

#ifdef __has_attribute

#define HAVE_ATTRIBUTE(x) __has_attribute(x)

#else

#define HAVE_ATTRIBUTE(x) 0

#endif

#if HAVE_ATTRIBUTE(aligned) || (defined(__GNUC__) && !defined(__clang__))

#define DATA_ALIGN_ATTRIBUTE __attribute__((aligned(4)))

#else

#define DATA_ALIGN_ATTRIBUTE

#endif


const unsigned char g_magic_wand_model_data[] DATA_ALIGN_ATTRIBUTE = {
  0x1c, 0x00, 0x00, 0x00, 0x54, 0x46, 0x4c, 0x33, 0x14, 0x00, 0x20, 0x00,
  0x04, 0x00, 0x08, 0x00, 0x0c, 0x00, 0x10, 0x00, 0x14, 0x00, 0x00, 0x00,
  0x18, 0x00, 0x1c, 0x00, 0x14, 0x00, 0x00, 0x00, 0x03, 0x00, 0x00, 0x00,
  0x18, 0x00, 0x00, 0x00, 0x2c, 0x00, 0x00, 0x00, 0xd8, 0x00, 0x00, 0x00,
  0x2c, 0x00, 0x00, 0x00, 0x80, 0x00, 0x00, 0x00, 0x78, 0x00, 0x00, 0x00,
  0x05, 0x00, 0x00, 0x00, 0x28, 0x07, 0x00, 0x00, 0x44, 0x06, 0x00, 0x00,
  0xbc, 0x03, 0x00, 0x00, 0xf8, 0x02, 0x00, 0x00, 0xac, 0x01, 0x00, 0x00,
  0x01, 0x00, 0x00, 0x00, 0xd0, 0x00, 0x00, 0x00, 0x14, 0x00, 0x00, 0x00,
  0xdc, 0x32, 0x00, 0x00, 0xd8, 0x32, 0x00, 0x00, 0xd0, 0x31, 0x00, 0x00,
  0x1c, 0x31, 0x00, 0x00, 0x74, 0x30, 0x00, 0x00, 0xfc, 0x2f, 0x00, 0x00,
  0x90, 0x2f, 0x00, 0x00, 0x40, 0x13, 0x00, 0x00, 0xec, 0x11, 0x00, 0x00,
  0x10, 0x10, 0x00, 0x00, 0xb4, 0x07, 0x00, 0x00, 0xb0, 0x32, 0x00, 0x00,
  0xac, 0x32, 0x00, 0x00, 0xa8, 0x32, 0x00, 0x00, 0xa4, 0x32, 0x00, 0x00,
  0xa0, 0x32, 0x00, 0x00, 0x9c, 0x32, 0x00, 0x00, 0x98, 0x32, 0x00, 0x00,
  0x94, 0x32, 0x00, 0x00, 0x3c, 0x00, 0x00, 0x00, 0x00, 0x00, 0x00, 0x00,
  0x01, 0x00, 0x00, 0x00, 0x0c, 0x00, 0x00, 0x00, 0x08, 0x00, 0x0c, 0x00,
  0x04, 0x00, 0x08, 0x00, 0x08, 0x00, 0x00, 0x00, 0x08, 0x00, 0x00, 0x00,
  0x13, 0x00, 0x00, 0x00, 0x13, 0x00, 0x00, 0x00, 0x6d, 0x69, 0x6e, 0x5f,
  0x72, 0x75, 0x6e, 0x74, 0x69, 0x6d, 0x65, 0x5f, 0x76, 0x65, 0x72, 0x73,
  0x69, 0x6f, 0x6e, 0x00, 0xb6, 0xce, 0xff, 0xff, 0x04, 0x00, 0x00, 0x00,
  0x10, 0x00, 0x00, 0x00, 0x31, 0x2e, 0x35, 0x2e, 0x30, 0x00, 0x00, 0x00,
  0x00, 0x00, 0x00, 0x00, 0x00, 0x00, 0x00, 0x00, 0x0f, 0x00, 0x00, 0x00,
  0x4d, 0x4c, 0x49, 0x52, 0x20, 0x43, 0x6f, 0x6e, 0x76, 0x65, 0x72, 0x74,
  0x65, 0x64, 0x2e, 0x00, 0x00, 0x00, 0x0e, 0x00, 0x18, 0x00, 0x04, 0x00,
  0x08, 0x00, 0x0c, 0x00, 0x10, 0x00, 0x14, 0x00, 0x0e, 0x00, 0x00, 0x00,
  0x14, 0x00, 0x00, 0x00, 0x5c, 0x00, 0x00, 0x00, 0x60, 0x00, 0x00, 0x00,
  0x64, 0x00, 0x00, 0x00, 0x84, 0x00, 0x00, 0x00, 0x12, 0x00, 0x00, 0x00,
  0x9c, 0x31, 0x00, 0x00, 0x2c, 0x31, 0x00, 0x00, 0x88, 0x30, 0x00, 0x00,
  0xe0, 0x2f, 0x00, 0x00, 0x38, 0x2f, 0x00, 0x00, 0xd4, 0x2e, 0x00, 0x00,
  0x6c, 0x2e, 0x00, 0x00, 0x18, 0x12, 0x00, 0x00, 0xbc, 0x10, 0x00, 0x00,
  0xe0, 0x0e, 0x00, 0x00, 0x0c, 0x06, 0x00, 0x00, 0x28, 0x05, 0x00, 0x00,
  0xe8, 0x03, 0x00, 0x00, 0x3c, 0x03, 0x00, 0x00, 0x98, 0x02, 0x00, 0x00,
  0xd4, 0x01, 0x00, 0x00, 0x10, 0x01, 0x00, 0x00, 0x84, 0x00, 0x00, 0x00,
  0x01, 0x00, 0x00, 0x00, 0x00, 0x00, 0x00, 0x00, 0x01, 0x00, 0x00, 0x00,
  0x11, 0x00, 0x00, 0x00, 0x08, 0x00, 0x00, 0x00, 0x74, 0x05, 0x00, 0x00,
  0x94, 0x04, 0x00, 0x00, 0x78, 0x03, 0x00, 0x00, 0xbc, 0x02, 0x00, 0x00,
  0x30, 0x02, 0x00, 0x00, 0x50, 0x01, 0x00, 0x00, 0xa8, 0x00, 0x00, 0x00,
  0x10, 0x00, 0x00, 0x00, 0x04, 0x00, 0x00, 0x00, 0x6d, 0x61, 0x69, 0x6e,
  0x00, 0x00, 0x00, 0x00, 0x7a, 0xff, 0xff, 0xff, 0x00, 0x00, 0x00, 0x09,
  0x04, 0x00, 0x00, 0x00, 0x1c, 0x00, 0x00, 0x00, 0x10, 0x00, 0x00, 0x00,
  0x04, 0x00, 0x00, 0x00, 0xb2, 0xcf, 0xff, 0xff, 0x00, 0x00, 0x80, 0x3f,
  0x01, 0x00, 0x00, 0x00, 0x11, 0x00, 0x00, 0x00, 0x01, 0x00, 0x00, 0x00,
  0x10, 0x00, 0x00, 0x00, 0xa0, 0xfa, 0xff, 0xff, 0x19, 0x00, 0x00, 0x00,
  0x00, 0x00, 0x00, 0x19, 0x01, 0x00, 0x00, 0x00, 0x40, 0xcf, 0xff, 0xff,
  0x14, 0x00, 0x00, 0x00, 0x12, 0x00, 0x00, 0x00, 0x18, 0x00, 0x00, 0x00,
  0x30, 0x00, 0x00, 0x00, 0x20, 0x00, 0x00, 0x00, 0x02, 0x00, 0x00, 0x00,
  0x01, 0x00, 0x00, 0x00, 0x04, 0x00, 0x00, 0x00, 0x08, 0x00, 0x00, 0x00,
  0x49, 0x64, 0x65, 0x6e, 0x74, 0x69, 0x74, 0x79, 0x00, 0x00, 0x00, 0x00,
  0x02, 0x00, 0x00, 0x00, 0xff, 0xff, 0xff, 0xff, 0x04, 0x00, 0x00, 0x00,
  0x24, 0xd0, 0xff, 0xff, 0x00, 0x00, 0x0e, 0x00, 0x18, 0x00, 0x08, 0x00,
  0x0c, 0x00, 0x10, 0x00, 0x07, 0x00, 0x14, 0x00, 0x0e, 0x00, 0x00, 0x00,
  0x00, 0x00, 0x00, 0x08, 0x03, 0x00, 0x00, 0x00, 0x18, 0x00, 0x00, 0x00,
  0x0c, 0x00, 0x00, 0x00, 0x04, 0x00, 0x00, 0x00, 0x40, 0xcf, 0xff, 0xff,
  0x01, 0x00, 0x00, 0x00, 0x10, 0x00, 0x00, 0x00, 0x03, 0x00, 0x00, 0x00,
  0x0f, 0x00, 0x00, 0x00, 0x07, 0x00, 0x00, 0x00, 0x04, 0x00, 0x00, 0x00,
  0xc8, 0xcf, 0xff, 0xff, 0x14, 0x00, 0x00, 0x00, 0x11, 0x00, 0x00, 0x00,
  0x18, 0x00, 0x00, 0x00, 0x5c, 0x00, 0x00, 0x00, 0x4c, 0x00, 0x00, 0x00,
  0x02, 0x00, 0x00, 0x00, 0x01, 0x00, 0x00, 0x00, 0x04, 0x00, 0x00, 0x00,
  0x34, 0x00, 0x00, 0x00, 0x73, 0x65, 0x71, 0x75, 0x65, 0x6e, 0x74, 0x69,
  0x61, 0x6c, 0x2f, 0x64, 0x65, 0x6e, 0x73, 0x65, 0x5f, 0x31, 0x2f, 0x4d,
  0x61, 0x74, 0x4d, 0x75, 0x6c, 0x3b, 0x73, 0x65, 0x71, 0x75, 0x65, 0x6e,
  0x74, 0x69, 0x61, 0x6c, 0x2f, 0x64, 0x65, 0x6e, 0x73, 0x65, 0x5f, 0x31,
  0x2f, 0x42, 0x69, 0x61, 0x73, 0x41, 0x64, 0x64, 0x00, 0x00, 0x00, 0x00,
  0x02, 0x00, 0x00, 0x00, 0xff, 0xff, 0xff, 0xff, 0x04, 0x00, 0x00, 0x00,
  0xc8, 0xcf, 0xff, 0xff, 0xda, 0xfc, 0xff, 0xff, 0x00, 0x00, 0x00, 0x08,
  0x03, 0x00, 0x00, 0x00, 0x24, 0x00, 0x00, 0x00, 0x18, 0x00, 0x00, 0x00,
  0x0c, 0x00, 0x00, 0x00, 0x00, 0x00, 0x06, 0x00, 0x08, 0x00, 0x07, 0x00,
  0x06, 0x00, 0x00, 0x00, 0x00, 0x00, 0x00, 0x01, 0x01, 0x00, 0x00, 0x00,
  0x0f, 0x00, 0x00, 0x00, 0x03, 0x00, 0x00, 0x00, 0x0e, 0x00, 0x00, 0x00,
  0x06, 0x00, 0x00, 0x00, 0x03, 0x00, 0x00, 0x00, 0xe8, 0xfb, 0xff, 0xff,
  0x09, 0x00, 0x00, 0x00, 0x00, 0x00, 0x00, 0x09, 0x01, 0x00, 0x00, 0x00,
  0x88, 0xd0, 0xff, 0xff, 0x14, 0x00, 0x00, 0x00, 0x10, 0x00, 0x00, 0x00,
  0x18, 0x00, 0x00, 0x00, 0x6c, 0x00, 0x00, 0x00, 0x5c, 0x00, 0x00, 0x00,
  0x02, 0x00, 0x00, 0x00, 0x01, 0x00, 0x00, 0x00, 0x10, 0x00, 0x00, 0x00,
  0x46, 0x00, 0x00, 0x00, 0x73, 0x65, 0x71, 0x75, 0x65, 0x6e, 0x74, 0x69,
  0x61, 0x6c, 0x2f, 0x64, 0x65, 0x6e, 0x73, 0x65, 0x2f, 0x4d, 0x61, 0x74,
  0x4d, 0x75, 0x6c, 0x3b, 0x73, 0x65, 0x71, 0x75, 0x65, 0x6e, 0x74, 0x69,
  0x61, 0x6c, 0x2f, 0x64, 0x65, 0x6e, 0x73, 0x65, 0x2f, 0x52, 0x65, 0x6c,
  0x75, 0x3b, 0x73, 0x65, 0x71, 0x75, 0x65, 0x6e, 0x74, 0x69, 0x61, 0x6c,
  0x2f, 0x64, 0x65, 0x6e, 0x73, 0x65, 0x2f, 0x42, 0x69, 0x61, 0x73, 0x41,
  0x64, 0x64, 0x00, 0x00, 0x02, 0x00, 0x00, 0x00, 0xff, 0xff, 0xff, 0xff,
  0x10, 0x00, 0x00, 0x00, 0xa8, 0xd1, 0xff, 0xff, 0x00, 0x00, 0x0a, 0x00,
  0x10, 0x00, 0x04, 0x00, 0x08, 0x00, 0x0c, 0x00, 0x0a, 0x00, 0x00, 0x00,
  0x02, 0x00, 0x00, 0x00, 0x10, 0x00, 0x00, 0x00, 0x04, 0x00, 0x00, 0x00,
  0x01, 0x00, 0x00, 0x00, 0x0e, 0x00, 0x00, 0x00, 0x02, 0x00, 0x00, 0x00,
  0x0d, 0x00, 0x00, 0x00, 0x05, 0x00, 0x00, 0x00, 0xa8, 0xfc, 0xff, 0xff,
  0x16, 0x00, 0x00, 0x00, 0x00, 0x00, 0x00, 0x16, 0x01, 0x00, 0x00, 0x00,
  0x48, 0xd1, 0xff, 0xff, 0x14, 0x00, 0x00, 0x00, 0x0f, 0x00, 0x00, 0x00,
  0x18, 0x00, 0x00, 0x00, 0x40, 0x00, 0x00, 0x00, 0x30, 0x00, 0x00, 0x00,
  0x02, 0x00, 0x00, 0x00, 0x01, 0x00, 0x00, 0x00, 0x70, 0x00, 0x00, 0x00,
  0x1a, 0x00, 0x00, 0x00, 0x73, 0x65, 0x71, 0x75, 0x65, 0x6e, 0x74, 0x69,
  0x61, 0x6c, 0x2f, 0x66, 0x6c, 0x61, 0x74, 0x74, 0x65, 0x6e, 0x2f, 0x52,
  0x65, 0x73, 0x68, 0x61, 0x70, 0x65, 0x00, 0x00, 0x02, 0x00, 0x00, 0x00,
  0xff, 0xff, 0xff, 0xff, 0x70, 0x00, 0x00, 0x00, 0x2c, 0xd1, 0xff, 0xff,
  0x3e, 0xfe, 0xff, 0xff, 0x00, 0x00, 0x00, 0x05, 0x01, 0x00, 0x00, 0x00,
  0x38, 0x00, 0x00, 0x00, 0x2c, 0x00, 0x00, 0x00, 0x14, 0x00, 0x00, 0x00,
  0x00, 0x00, 0x0e, 0x00, 0x14, 0x00, 0x00, 0x00, 0x10, 0x00, 0x0c, 0x00,
  0x08, 0x00, 0x04, 0x00, 0x0e, 0x00, 0x00, 0x00, 0x03, 0x00, 0x00, 0x00,
  0x01, 0x00, 0x00, 0x00, 0x03, 0x00, 0x00, 0x00, 0x01, 0x00, 0x00, 0x00,
  0x01, 0x00, 0x00, 0x00, 0x0d, 0x00, 0x00, 0x00, 0x01, 0x00, 0x00, 0x00,
  0x0c, 0x00, 0x00, 0x00, 0xe8, 0xd1, 0xff, 0xff, 0x14, 0x00, 0x00, 0x00,
  0x0e, 0x00, 0x00, 0x00, 0x20, 0x00, 0x00, 0x00, 0x58, 0x00, 0x00, 0x00,
  0x40, 0x00, 0x00, 0x00, 0x04, 0x00, 0x00, 0x00, 0x01, 0x00, 0x00, 0x00,
  0x07, 0x00, 0x00, 0x00, 0x01, 0x00, 0x00, 0x00, 0x10, 0x00, 0x00, 0x00,
  0x22, 0x00, 0x00, 0x00, 0x73, 0x65, 0x71, 0x75, 0x65, 0x6e, 0x74, 0x69,
  0x61, 0x6c, 0x2f, 0x6d, 0x61, 0x78, 0x5f, 0x70, 0x6f, 0x6f, 0x6c, 0x69,
  0x6e, 0x67, 0x32, 0x64, 0x5f, 0x31, 0x2f, 0x4d, 0x61, 0x78, 0x50, 0x6f,
  0x6f, 0x6c, 0x00, 0x00, 0x04, 0x00, 0x00, 0x00, 0xff, 0xff, 0xff, 0xff,
  0x07, 0x00, 0x00, 0x00, 0x01, 0x00, 0x00, 0x00, 0x10, 0x00, 0x00, 0x00,
  0xe4, 0xd1, 0xff, 0xff, 0x1a, 0xfe, 0xff, 0xff, 0x00, 0x00, 0x00, 0x01,
  0x24, 0x00, 0x00, 0x00, 0x18, 0x00, 0x00, 0x00, 0x04, 0x00, 0x00, 0x00,
  0x0c, 0xfe, 0xff, 0xff, 0x01, 0x00, 0x00, 0x00, 0x01, 0x00, 0x00, 0x00,
  0x00, 0x00, 0x00, 0x01, 0x01, 0x00, 0x00, 0x00, 0x0c, 0x00, 0x00, 0x00,
  0x03, 0x00, 0x00, 0x00, 0x0b, 0x00, 0x00, 0x00, 0x09, 0x00, 0x00, 0x00,
  0x02, 0x00, 0x00, 0x00, 0x90, 0xd2, 0xff, 0xff, 0x14, 0x00, 0x00, 0x00,
  0x0d, 0x00, 0x00, 0x00, 0x20, 0x00, 0x00, 0x00, 0xb8, 0x00, 0x00, 0x00,
  0xa0, 0x00, 0x00, 0x00, 0x04, 0x00, 0x00, 0x00, 0x01, 0x00, 0x00, 0x00,
  0x15, 0x00, 0x00, 0x00, 0x01, 0x00, 0x00, 0x00, 0x10, 0x00, 0x00, 0x00,
  0x83, 0x00, 0x00, 0x00, 0x73, 0x65, 0x71, 0x75, 0x65, 0x6e, 0x74, 0x69,
  0x61, 0x6c, 0x2f, 0x63, 0x6f, 0x6e, 0x76, 0x32, 0x64, 0x5f, 0x31, 0x2f,
  0x52, 0x65, 0x6c, 0x75, 0x3b, 0x73, 0x65, 0x71, 0x75, 0x65, 0x6e, 0x74,
  0x69, 0x61, 0x6c, 0x2f, 0x63, 0x6f, 0x6e, 0x76, 0x32, 0x64, 0x5f, 0x31,
  0x2f, 0x42, 0x69, 0x61, 0x73, 0x41, 0x64, 0x64, 0x3b, 0x73, 0x65, 0x71,
  0x75, 0x65, 0x6e, 0x74, 0x69, 0x61, 0x6c, 0x2f, 0x63, 0x6f, 0x6e, 0x76,
  0x32, 0x64, 0x5f, 0x31, 0x2f, 0x43, 0x6f, 0x6e, 0x76, 0x32, 0x44, 0x3b,
  0x73, 0x65, 0x71, 0x75, 0x65, 0x6e, 0x74, 0x69, 0x61, 0x6c, 0x2f, 0x63,
  0x6f, 0x6e, 0x76, 0x32, 0x64, 0x5f, 0x31, 0x2f, 0x42, 0x69, 0x61, 0x73,
  0x41, 0x64, 0x64, 0x2f, 0x52, 0x65, 0x61, 0x64, 0x56, 0x61, 0x72, 0x69,
  0x61, 0x62, 0x6c, 0x65, 0x4f, 0x70, 0x2f, 0x72, 0x65, 0x73, 0x6f, 0x75,
  0x72, 0x63, 0x65, 0x00, 0x04, 0x00, 0x00, 0x00, 0xff, 0xff, 0xff, 0xff,
  0x15, 0x00, 0x00, 0x00, 0x01, 0x00, 0x00, 0x00, 0x10, 0x00, 0x00, 0x00,
  0xfc, 0xd3, 0xff, 0xff, 0x00, 0x00, 0x0e, 0x00, 0x1a, 0x00, 0x08, 0x00,
  0x0c, 0x00, 0x10, 0x00, 0x07, 0x00, 0x14, 0x00, 0x0e, 0x00, 0x00, 0x00,
  0x00, 0x00, 0x00, 0x05, 0x01, 0x00, 0x00, 0x00, 0x3c, 0x00, 0x00, 0x00,
  0x30, 0x00, 0x00, 0x00, 0x14, 0x00, 0x00, 0x00, 0x00, 0x00, 0x0e, 0x00,
  0x18, 0x00, 0x17, 0x00, 0x10, 0x00, 0x0c, 0x00, 0x08, 0x00, 0x04, 0x00,
  0x0e, 0x00, 0x00, 0x00, 0x03, 0x00, 0x00, 0x00, 0x03, 0x00, 0x00, 0x00,
  0x03, 0x00, 0x00, 0x00, 0x03, 0x00, 0x00, 0x00, 0x00, 0x00, 0x00, 0x01,
  0x01, 0x00, 0x00, 0x00, 0x0b, 0x00, 0x00, 0x00, 0x01, 0x00, 0x00, 0x00,
  0x0a, 0x00, 0x00, 0x00, 0x2c, 0xff, 0xff, 0xff, 0x11, 0x00, 0x00, 0x00,
  0x00, 0x00, 0x00, 0x11, 0x01, 0x00, 0x00, 0x00, 0xcc, 0xd3, 0xff, 0xff,
  0x14, 0x00, 0x00, 0x00, 0x0c, 0x00, 0x00, 0x00, 0x20, 0x00, 0x00, 0x00,
  0x58, 0x00, 0x00, 0x00, 0x40, 0x00, 0x00, 0x00, 0x04, 0x00, 0x00, 0x00,
  0x01, 0x00, 0x00, 0x00, 0x15, 0x00, 0x00, 0x00, 0x01, 0x00, 0x00, 0x00,
  0x08, 0x00, 0x00, 0x00, 0x20, 0x00, 0x00, 0x00, 0x73, 0x65, 0x71, 0x75,
  0x65, 0x6e, 0x74, 0x69, 0x61, 0x6c, 0x2f, 0x6d, 0x61, 0x78, 0x5f, 0x70,
  0x6f, 0x6f, 0x6c, 0x69, 0x6e, 0x67, 0x32, 0x64, 0x2f, 0x4d, 0x61, 0x78,
  0x50, 0x6f, 0x6f, 0x6c, 0x00, 0x00, 0x00, 0x00, 0x04, 0x00, 0x00, 0x00,
  0xff, 0xff, 0xff, 0xff, 0x15, 0x00, 0x00, 0x00, 0x01, 0x00, 0x00, 0x00,
  0x08, 0x00, 0x00, 0x00, 0xd8, 0xd4, 0xff, 0xff, 0x00, 0x00, 0x0e, 0x00,
  0x14, 0x00, 0x00, 0x00, 0x08, 0x00, 0x0c, 0x00, 0x07, 0x00, 0x10, 0x00,
  0x0e, 0x00, 0x00, 0x00, 0x00, 0x00, 0x00, 0x01, 0x30, 0x00, 0x00, 0x00,
  0x24, 0x00, 0x00, 0x00, 0x10, 0x00, 0x00, 0x00, 0x0c, 0x00, 0x10, 0x00,
  0x00, 0x00, 0x04, 0x00, 0x08, 0x00, 0x0f, 0x00, 0x0c, 0x00, 0x00, 0x00,
  0x01, 0x00, 0x00, 0x00, 0x01, 0x00, 0x00, 0x00, 0x00, 0x00, 0x00, 0x01,
  0x01, 0x00, 0x00, 0x00, 0x0a, 0x00, 0x00, 0x00, 0x03, 0x00, 0x00, 0x00,
  0x00, 0x00, 0x00, 0x00, 0x08, 0x00, 0x00, 0x00, 0x01, 0x00, 0x00, 0x00,
  0x0c, 0x00, 0x10, 0x00, 0x0b, 0x00, 0x00, 0x00, 0x0c, 0x00, 0x04, 0x00,
  0x0c, 0x00, 0x00, 0x00, 0x03, 0x00, 0x00, 0x00, 0x00, 0x00, 0x00, 0x03,
  0x01, 0x00, 0x00, 0x00, 0xac, 0xd4, 0xff, 0xff, 0x14, 0x00, 0x00, 0x00,
  0x0b, 0x00, 0x00, 0x00, 0x20, 0x00, 0x00, 0x00, 0xb0, 0x00, 0x00, 0x00,
  0x98, 0x00, 0x00, 0x00, 0x04, 0x00, 0x00, 0x00, 0x01, 0x00, 0x00, 0x00,
  0x40, 0x00, 0x00, 0x00, 0x03, 0x00, 0x00, 0x00, 0x08, 0x00, 0x00, 0x00,
  0x7b, 0x00, 0x00, 0x00, 0x73, 0x65, 0x71, 0x75, 0x65, 0x6e, 0x74, 0x69,
  0x61, 0x6c, 0x2f, 0x63, 0x6f, 0x6e, 0x76, 0x32, 0x64, 0x2f, 0x52, 0x65,
  0x6c, 0x75, 0x3b, 0x73, 0x65, 0x71, 0x75, 0x65, 0x6e, 0x74, 0x69, 0x61,
  0x6c, 0x2f, 0x63, 0x6f, 0x6e, 0x76, 0x32, 0x64, 0x2f, 0x42, 0x69, 0x61,
  0x73, 0x41, 0x64, 0x64, 0x3b, 0x73, 0x65, 0x71, 0x75, 0x65, 0x6e, 0x74,
  0x69, 0x61, 0x6c, 0x2f, 0x63, 0x6f, 0x6e, 0x76, 0x32, 0x64, 0x2f, 0x43,
  0x6f, 0x6e, 0x76, 0x32, 0x44, 0x3b, 0x73, 0x65, 0x71, 0x75, 0x65, 0x6e,
  0x74, 0x69, 0x61, 0x6c, 0x2f, 0x63, 0x6f, 0x6e, 0x76, 0x32, 0x64, 0x2f,
  0x42, 0x69, 0x61, 0x73, 0x41, 0x64, 0x64, 0x2f, 0x52, 0x65, 0x61, 0x64,
  0x56, 0x61, 0x72, 0x69, 0x61, 0x62, 0x6c, 0x65, 0x4f, 0x70, 0x2f, 0x72,
  0x65, 0x73, 0x6f, 0x75, 0x72, 0x63, 0x65, 0x00, 0x04, 0x00, 0x00, 0x00,
  0xff, 0xff, 0xff, 0xff, 0x40, 0x00, 0x00, 0x00, 0x03, 0x00, 0x00, 0x00,
  0x08, 0x00, 0x00, 0x00, 0x00, 0xd5, 0xff, 0xff, 0x0a, 0xd6, 0xff, 0xff,
  0x04, 0x00, 0x00, 0x00, 0x00, 0x08, 0x00, 0x00, 0xa6, 0x5e, 0x9f, 0x3d,
  0xec, 0x2a, 0x56, 0xbe, 0x42, 0x61, 0x54, 0x3e, 0xdd, 0x6f, 0x21, 0x3e,
  0x0c, 0x07, 0x6b, 0xbc, 0xeb, 0xa6, 0xcc, 0xbd, 0xbf, 0xbd, 0x93, 0x3e,
  0x3d, 0x81, 0x0c, 0x3d, 0x25, 0x11, 0xc0, 0xbd, 0x92, 0x4f, 0xfa, 0xbd,
  0xae, 0xd4, 0x2e, 0x3c, 0xed, 0x9c, 0x30, 0xbe, 0xcd, 0x2e, 0xa5, 0xbd,
  0xcf, 0x6e, 0xc2, 0xbc, 0x83, 0xc7, 0x1e, 0x3e, 0x65, 0x45, 0x06, 0x3e,
  0x8c, 0xb2, 0x25, 0x3e, 0xab, 0xf6, 0xba, 0x3d, 0xe1, 0xb2, 0x41, 0xbe,
  0x28, 0x1d, 0x74, 0xbd, 0xf2, 0xf5, 0x1f, 0xbe, 0x1c, 0x4f, 0x11, 0xbe,
  0x85, 0x16, 0x53, 0xbe, 0x80, 0xa7, 0x4f, 0xbe, 0xa8, 0x1a, 0x5b, 0xbd,
  0x70, 0x5b, 0x77, 0xbd, 0x62, 0x81, 0xeb, 0xbd, 0xfb, 0x8b, 0xa1, 0xbd,
  0x6c, 0xa7, 0xa2, 0xbd, 0xde, 0x25, 0x0b, 0x3e, 0x23, 0x0a, 0x67, 0xbe,
  0xd6, 0xbf, 0x8c, 0x3c, 0x7e, 0x3b, 0x67, 0x3e, 0xb7, 0x5e, 0x5d, 0xbe,
  0xe0, 0xcc, 0x07, 0xbe, 0x65, 0xa3, 0x38, 0xbe, 0xb7, 0x34, 0xf9, 0x3d,
  0x91, 0x61, 0x77, 0x3e, 0x05, 0x14, 0x6f, 0xbe, 0x2a, 0xdc, 0xb9, 0xbe,
  0x3d, 0xb6, 0x4d, 0xbd, 0xc6, 0x61, 0x9a, 0xbd, 0xf6, 0xe0, 0xed, 0x3c,
  0xb4, 0x11, 0x10, 0xbe, 0xc4, 0xea, 0x09, 0x3e, 0x85, 0x6b, 0x71, 0x3e,
  0x19, 0x50, 0x85, 0x3d, 0xed, 0x1c, 0x4b, 0xbe, 0x3b, 0x42, 0x13, 0xbd,
  0x17, 0xe7, 0x89, 0xbd, 0xe4, 0x1f, 0xad, 0xbd, 0x5a, 0x45, 0x3c, 0x3d,
  0x5e, 0xb8, 0xd9, 0x3d, 0x34, 0x82, 0xa7, 0xbd, 0xfc, 0x3e, 0xf4, 0xbd,
  0x9a, 0xfe, 0x5f, 0xbe, 0x85, 0xa0, 0x20, 0xbd, 0xe2, 0x8e, 0x94, 0xbd,
  0xb7, 0xab, 0xd1, 0xbd, 0x0a, 0x99, 0xb1, 0xbc, 0xda, 0x7e, 0x11, 0xbe,
  0xff, 0x78, 0xb6, 0x3d, 0xae, 0x81, 0x24, 0x3e, 0x57, 0x44, 0x8a, 0x3d,
  0xe8, 0xc1, 0x34, 0x3e, 0x55, 0xbf, 0x13, 0x3e, 0x6a, 0xde, 0x8c, 0xbe,
  0x44, 0x5a, 0x08, 0x3e, 0xbe, 0xe6, 0x73, 0x3c, 0x73, 0x99, 0x2b, 0xbe,
  0x33, 0xf0, 0x95, 0xbe, 0x72, 0xf0, 0xa9, 0x3d, 0x3d, 0x72, 0xb4, 0x3d,
  0x8a, 0x10, 0x83, 0xbe, 0x2d, 0x54, 0x97, 0xbe, 0xb3, 0xef, 0x31, 0x3e,
  0x8a, 0xf6, 0x6f, 0xbe, 0x23, 0x98, 0xee, 0x3c, 0xd5, 0x56, 0xf5, 0xbc,
  0xed, 0x39, 0x16, 0x3e, 0x14, 0x21, 0x55, 0x3c, 0xe3, 0x55, 0x9f, 0x3d,
  0xce, 0xf5, 0xec, 0xbd, 0x96, 0x76, 0x81, 0xbd, 0x1d, 0x3a, 0x06, 0xbb,
  0xae, 0xad, 0x34, 0x3e, 0xb7, 0xaa, 0x8f, 0xbd, 0x3f, 0x6d, 0x49, 0xbd,
  0x9a, 0xe5, 0x0a, 0x3e, 0xd8, 0xb7, 0x10, 0x3e, 0xe3, 0xa4, 0x9f, 0xbe,
  0x64, 0xea, 0x96, 0x3c, 0xe0, 0xc0, 0x78, 0xbe, 0x3c, 0xbf, 0xc5, 0x3d,
  0x94, 0xa9, 0x14, 0xbe, 0xeb, 0xc7, 0x80, 0xbe, 0x9b, 0x88, 0x2e, 0xbe,
  0x91, 0xea, 0xaf, 0x3d, 0xb2, 0xfc, 0x8e, 0xbd, 0x93, 0xe0, 0x12, 0x3e,
  0xd7, 0x73, 0x0a, 0xbe, 0x63, 0x9f, 0xde, 0xbd, 0xbf, 0x69, 0x81, 0xbb,
  0x09, 0x8d, 0x48, 0xbe, 0xb4, 0x17, 0x07, 0x3e, 0x1f, 0x9f, 0xa6, 0xbc,
  0x10, 0x45, 0x5a, 0x3e, 0x45, 0x1d, 0x0f, 0x3e, 0x36, 0x4f, 0x1b, 0x3e,
  0x1f, 0x5b, 0x63, 0xbe, 0x49, 0x6c, 0x60, 0x3e, 0xe8, 0x23, 0x28, 0xbe,
  0x42, 0x45, 0x73, 0xbe, 0x98, 0xbd, 0xfa, 0x3d, 0x8b, 0xb7, 0xa8, 0xbd,
  0x0d, 0x47, 0x39, 0xbd, 0x4f, 0x1c, 0xf7, 0xbd, 0x7d, 0x58, 0x26, 0xbe,
  0xba, 0xd2, 0x97, 0xbd, 0xd4, 0x20, 0x07, 0x3e, 0x69, 0xd5, 0x9e, 0xbd,
  0x5b, 0x89, 0x0a, 0x3d, 0xdf, 0x6d, 0x31, 0x3d, 0x37, 0xb5, 0xda, 0x3d,
  0xec, 0x92, 0x63, 0xbe, 0x3b, 0x46, 0xd0, 0xbd, 0x62, 0x9b, 0x59, 0xbd,
  0x67, 0x4f, 0x46, 0x3e, 0xb5, 0xfc, 0x36, 0x3d, 0x07, 0x01, 0x3e, 0x3e,
  0x9b, 0x7f, 0xb9, 0x3d, 0x9c, 0xd0, 0x1a, 0xbe, 0x2d, 0x90, 0x44, 0xbe,
  0xf4, 0x48, 0xb0, 0x3d, 0xa7, 0xec, 0x0b, 0xbe, 0xb0, 0xf2, 0x63, 0xbd,
  0x7a, 0x04, 0x8c, 0xbc, 0x58, 0xbc, 0x81, 0xbd, 0x1e, 0x08, 0x20, 0x3d,
  0x31, 0x33, 0x61, 0xbe, 0x23, 0x68, 0x9f, 0xbe, 0x89, 0x5a, 0xfe, 0xbd,
  0xcc, 0xf5, 0xbe, 0x3d, 0xca, 0xea, 0xc0, 0xbd, 0xe0, 0x0a, 0xb0, 0xbc,
  0x94, 0x69, 0x68, 0xbe, 0xfb, 0x7e, 0x1d, 0xbd, 0x9d, 0x02, 0x51, 0xbd,
  0x15, 0x45, 0x89, 0x3c, 0x9c, 0x74, 0x0b, 0x3e, 0x9b, 0x89, 0x2d, 0xbc,
  0xce, 0xbd, 0x59, 0x3d, 0xb8, 0x7c, 0x65, 0x3c, 0x2e, 0x62, 0x23, 0xbe,
  0x9f, 0x58, 0xb8, 0xbb, 0xf4, 0x57, 0x56, 0x3e, 0x11, 0xa2, 0x83, 0x3d,
  0xe7, 0x2f, 0x45, 0xbd, 0x49, 0x61, 0xbd, 0x3d, 0x79, 0xe0, 0x28, 0xbd,
  0x99, 0x1a, 0x07, 0xbd, 0xc9, 0xad, 0x63, 0xbe, 0x36, 0x12, 0x3d, 0xbd,
  0xcb, 0x61, 0x54, 0xbd, 0x0e, 0x8e, 0x2f, 0xbe, 0xee, 0x20, 0xe7, 0x3d,
  0xaf, 0xfa, 0xbe, 0x3d, 0x17, 0x86, 0x2f, 0x3e, 0xbe, 0xa8, 0x01, 0xbe,
  0x61, 0xbe, 0x65, 0xbe, 0x64, 0xd3, 0x3a, 0x3d, 0x36, 0x35, 0x98, 0x3d,
  0x7b, 0xb7, 0x32, 0xbc, 0xd3, 0xca, 0x68, 0x3d, 0x5b, 0x33, 0x6d, 0xbd,
  0x86, 0x33, 0x23, 0xbe, 0xef, 0xcc, 0x0b, 0x3e, 0x4e, 0xf2, 0xec, 0x3c,
  0x32, 0xa0, 0x9e, 0xbd, 0xc1, 0x8b, 0xcf, 0xbd, 0x9d, 0xa8, 0x84, 0x3d,
  0x4b, 0xdd, 0x8f, 0xbd, 0x64, 0xa1, 0x20, 0xbe, 0x09, 0x29, 0xa1, 0x3d,
  0xfa, 0xb7, 0x43, 0x3e, 0x1c, 0x3a, 0x0d, 0x3e, 0x28, 0xaf, 0x39, 0x3d,
  0xfc, 0xd1, 0x16, 0x3e, 0xff, 0x8b, 0x1b, 0xbe, 0x7f, 0x6b, 0x93, 0x3d,
  0xc0, 0xff, 0x7c, 0x3c, 0x55, 0xa4, 0x7d, 0x3c, 0xb2, 0xb0, 0x9a, 0x3d,
  0xe0, 0x49, 0x66, 0xbe, 0x24, 0x86, 0x35, 0xbe, 0x92, 0x38, 0x3b, 0x3e,
  0x75, 0x73, 0x87, 0xbe, 0xd6, 0xe3, 0x0c, 0xbe, 0xd5, 0x3b, 0xfb, 0x3d,
  0x5e, 0x77, 0x3a, 0xbe, 0xcd, 0x66, 0x19, 0xbe, 0x6e, 0x85, 0xe6, 0xbd,
  0x84, 0x43, 0x82, 0xbe, 0x13, 0x05, 0x82, 0x3c, 0x7d, 0x99, 0xbb, 0xbd,
  0xf0, 0x74, 0x33, 0x3e, 0x9a, 0x83, 0x2b, 0xbe, 0x59, 0x53, 0xff, 0xbd,
  0xed, 0xf2, 0xdf, 0x3d, 0xc9, 0xc8, 0x7a, 0xbd, 0x7c, 0x3a, 0x58, 0xbe,
  0xec, 0xb8, 0xa4, 0x3d, 0xa4, 0x56, 0x9e, 0xbe, 0x73, 0x7d, 0xe5, 0x3d,
  0xd8, 0xfb, 0xb5, 0x3e, 0x8a, 0x74, 0x67, 0xbe, 0x40, 0x60, 0x9f, 0x3d,
  0x22, 0x71, 0x44, 0xbe, 0xc1, 0xa9, 0x8c, 0xbe, 0x87, 0x1f, 0x40, 0xbe,
  0xef, 0x82, 0x6d, 0xbe, 0x8a, 0xb5, 0x21, 0x3d, 0xc4, 0xd2, 0x2b, 0x3e,
  0xae, 0x69, 0x5c, 0xbd, 0xd6, 0xf7, 0xbc, 0x3c, 0x3f, 0xa3, 0x0e, 0x3f,
  0x24, 0x0b, 0xe4, 0x38, 0x18, 0xbd, 0x02, 0x3d, 0x16, 0x5d, 0x0b, 0xbe,
  0x36, 0x81, 0x21, 0xbe, 0x5d, 0x35, 0x21, 0x3e, 0x86, 0xfd, 0x43, 0xbe,
  0x2f, 0x11, 0x44, 0xbd, 0x7b, 0xef, 0x70, 0x3d, 0x53, 0x83, 0x39, 0x3e,
  0xa4, 0xdc, 0x87, 0xbd, 0x2d, 0xfd, 0x86, 0x3d, 0x3d, 0xe0, 0x23, 0xbd,
  0x0d, 0x06, 0x72, 0x3d, 0x5f, 0x9d, 0x4c, 0xbe, 0xa5, 0xbd, 0xcb, 0x3d,
  0xb1, 0xa2, 0xd2, 0x3e, 0x8f, 0xd1, 0x46, 0x3d, 0x69, 0x70, 0x22, 0xbd,
  0x65, 0x54, 0x31, 0xbe, 0x88, 0x4d, 0xc3, 0xbd, 0x71, 0x52, 0xbb, 0xbd,
  0xe8, 0x27, 0x8f, 0xbe, 0xd1, 0xc3, 0xd5, 0xbc, 0xd1, 0x57, 0x3a, 0x3e,
  0x89, 0x12, 0x67, 0x3e, 0x11, 0x74, 0xd5, 0xbd, 0x6a, 0xfd, 0x07, 0xbe,
  0x39, 0x4a, 0xc0, 0xbd, 0x21, 0x6b, 0xef, 0xbe, 0xbf, 0x23, 0xc6, 0xbe,
  0x43, 0x94, 0x32, 0xbe, 0x0c, 0x30, 0xe3, 0x3c, 0x24, 0x5f, 0x13, 0xbe,
  0x05, 0x22, 0x6e, 0xbd, 0x2d, 0xab, 0xe6, 0x3d, 0xe5, 0x57, 0x34, 0xbe,
  0xf1, 0xad, 0x1f, 0xbe, 0x26, 0x72, 0xb6, 0x3e, 0x90, 0x29, 0xb0, 0xbd,
  0xa4, 0x8a, 0xe6, 0xbd, 0xe7, 0xdb, 0x3d, 0xbe, 0x50, 0x99, 0x02, 0x3e,
  0xaf, 0xc4, 0xcd, 0x3a, 0xe0, 0xf0, 0xca, 0xbc, 0x2c, 0x00, 0x6d, 0xbd,
  0xae, 0x7e, 0xd3, 0x3d, 0x1d, 0xff, 0x8b, 0x3e, 0x34, 0x59, 0x63, 0x3d,
  0xba, 0x29, 0x50, 0xbe, 0x36, 0x64, 0x65, 0xbd, 0x1c, 0x4f, 0x8d, 0x3e,
  0x4e, 0xdc, 0x59, 0xbd, 0x51, 0xb5, 0x9e, 0x3d, 0xf8, 0x89, 0x5f, 0xbe,
  0xe8, 0x1c, 0x1b, 0x3e, 0x37, 0x09, 0x58, 0xbc, 0x3f, 0xa5, 0x1b, 0xbe,
  0x91, 0xf5, 0x81, 0x3d, 0x41, 0x77, 0xb0, 0x3d, 0xad, 0xfc, 0xad, 0xbd,
  0x4b, 0xe8, 0x9d, 0xbd, 0x10, 0xcc, 0x35, 0x3e, 0x2e, 0x35, 0x02, 0xbe,
  0x50, 0xc1, 0xf2, 0xbd, 0x1f, 0xbd, 0x11, 0x3e, 0x86, 0x5a, 0xf5, 0x3d,
  0x02, 0xdf, 0x3d, 0x3c, 0xb8, 0x3f, 0x97, 0x3c, 0x38, 0x21, 0x4b, 0xbe,
  0x4f, 0xf5, 0x59, 0xbe, 0x1b, 0x4e, 0x4c, 0xbe, 0xd1, 0xa9, 0xfa, 0xbc,
  0x91, 0x6a, 0x83, 0xbd, 0x74, 0xe9, 0x8e, 0xbd, 0x1f, 0x7b, 0x2e, 0x3e,
  0x4e, 0xd5, 0x55, 0xbe, 0x61, 0x04, 0x1d, 0xbe, 0x70, 0xff, 0xf9, 0x3c,
  0x6d, 0x22, 0xac, 0x3c, 0xed, 0xc6, 0x81, 0xbd, 0x6f, 0x72, 0x43, 0xbe,
  0xe1, 0x61, 0x63, 0xbd, 0x25, 0x26, 0xe6, 0xbd, 0x14, 0xd3, 0x0a, 0xbc,
  0x30, 0x04, 0x81, 0xbd, 0xee, 0x15, 0x30, 0xbe, 0xb3, 0x83, 0x59, 0xbe,
  0x31, 0xb7, 0x20, 0xbd, 0xd2, 0x88, 0x17, 0xbe, 0xe4, 0x77, 0x68, 0xbe,
  0xb6, 0xee, 0x85, 0xbb, 0x19, 0x4c, 0x49, 0xbe, 0xf7, 0x1b, 0xf8, 0x3c,
  0x28, 0xa4, 0xf2, 0xbd, 0x70, 0x52, 0x26, 0xbe, 0x2c, 0x18, 0x42, 0x3e,
  0x20, 0xcb, 0x8d, 0xbd, 0x24, 0x8f, 0x3b, 0xbe, 0xbf, 0x09, 0x47, 0xbd,
  0x4b, 0x5d, 0xa9, 0x3c, 0x0e, 0x9e, 0xd8, 0xbd, 0x82, 0x52, 0x10, 0xbe,
  0x9d, 0x8c, 0x2a, 0x3e, 0xb3, 0x66, 0xf1, 0xbb, 0x51, 0xf9, 0x83, 0x3e,
  0x18, 0x5d, 0xce, 0xbd, 0x55, 0xd3, 0x09, 0xbd, 0x49, 0x00, 0x18, 0x3e,
  0x11, 0x90, 0x0a, 0xbe, 0x9f, 0x14, 0x30, 0xbe, 0x9e, 0x06, 0x81, 0xbc,
  0xc5, 0x8e, 0x8c, 0x3d, 0xc5, 0xc0, 0x3f, 0x3e, 0x25, 0x59, 0x38, 0xbe,
  0x70, 0x05, 0xb9, 0xbd, 0xdb, 0x07, 0x0b, 0x3e, 0xf7, 0x32, 0x73, 0xbe,
  0x39, 0x2c, 0xd5, 0xbd, 0x6a, 0x2e, 0x2d, 0x3e, 0xa9, 0xa2, 0x25, 0xbe,
  0x3a, 0xad, 0xbb, 0xbd, 0x53, 0xcd, 0x1c, 0xbe, 0xe8, 0x76, 0xc7, 0xbd,
  0xe7, 0x17, 0x32, 0xbe, 0x1e, 0x31, 0xd1, 0x3c, 0x1f, 0xd1, 0x1f, 0xbd,
  0xf6, 0x69, 0x89, 0xbe, 0xd5, 0x0b, 0x65, 0x3c, 0xe8, 0x9f, 0x89, 0x3b,
  0x9a, 0x8f, 0x30, 0xbe, 0x4f, 0x98, 0x06, 0x3e, 0x0e, 0x39, 0x90, 0x3d,
  0x5b, 0xf8, 0x73, 0xbd, 0x7e, 0xe6, 0x8a, 0xbe, 0x26, 0xb0, 0x69, 0x3d,
  0x29, 0xc2, 0x56, 0x3d, 0x9d, 0xb9, 0xe5, 0xbd, 0x08, 0x8e, 0x3d, 0xbd,
  0xe2, 0xbd, 0xb7, 0x3d, 0x93, 0xc5, 0x8f, 0x3d, 0x9c, 0x6b, 0xb3, 0xbd,
  0x51, 0xb8, 0x32, 0x3c, 0x3d, 0x62, 0x8d, 0xbe, 0x51, 0x7f, 0x14, 0x3e,
  0x5c, 0x6f, 0x05, 0x3c, 0xe6, 0x8e, 0xbb, 0xbd, 0xbe, 0xfe, 0x02, 0x3e,
  0x91, 0x56, 0x3b, 0x3d, 0x64, 0xa2, 0x84, 0x3e, 0xc8, 0xed, 0x87, 0x3c,
  0x0e, 0xbf, 0x6e, 0xbe, 0x76, 0x2c, 0x0d, 0xbe, 0x16, 0x98, 0x12, 0x3e,
  0xff, 0xad, 0x1a, 0x3e, 0xb6, 0x48, 0x73, 0xbe, 0x98, 0xde, 0x20, 0x3e,
  0x61, 0x2e, 0x86, 0x3d, 0x77, 0x95, 0xb6, 0xbd, 0x26, 0xda, 0x50, 0x3d,
  0xf0, 0x4b, 0x65, 0xbe, 0xc5, 0xc6, 0x9e, 0xbc, 0x2b, 0xd4, 0x2e, 0xbe,
  0x1a, 0x4b, 0x64, 0xbe, 0x0b, 0x59, 0xca, 0x3d, 0x10, 0xae, 0x06, 0x3d,
  0x3c, 0x65, 0x93, 0xbd, 0xb4, 0x9a, 0xc0, 0x3d, 0xda, 0x59, 0x51, 0xbe,
  0xdc, 0xe0, 0x2f, 0xbe, 0x89, 0xcf, 0x35, 0x3e, 0x7c, 0x06, 0xe3, 0xbd,
  0x15, 0x3b, 0xc7, 0x3d, 0x97, 0x8f, 0x72, 0xbe, 0x03, 0x84, 0x2d, 0x3e,
  0x33, 0x5d, 0xed, 0x3c, 0x8f, 0x6d, 0xb5, 0xbe, 0xb5, 0x76, 0x05, 0xbe,
  0x37, 0x9b, 0xee, 0x3d, 0x1d, 0x74, 0xf6, 0xbd, 0xce, 0x26, 0xc8, 0xba,
  0x0b, 0x56, 0x47, 0xbc, 0xa0, 0x2e, 0x27, 0xbd, 0xec, 0xf0, 0x26, 0xbd,
  0xf5, 0xd5, 0x8f, 0x3b, 0x1b, 0x95, 0xe7, 0xbd, 0xa0, 0x43, 0x63, 0xbd,
  0xf0, 0x02, 0x96, 0xbd, 0x00, 0x57, 0xec, 0xbc, 0x73, 0xd0, 0x93, 0xba,
  0x9a, 0x29, 0x95, 0x3e, 0x6a, 0xfe, 0xdc, 0x3c, 0xf3, 0x34, 0x8b, 0x3e,
  0xd6, 0x55, 0xe9, 0x3d, 0x42, 0x3a, 0x82, 0x3e, 0x5b, 0x59, 0xf1, 0xbd,
  0xe2, 0x8a, 0xa6, 0x3d, 0x15, 0x54, 0xe4, 0x3c, 0xfc, 0x51, 0x2a, 0xbe,
  0x30, 0x29, 0x3a, 0xbe, 0xd2, 0xc7, 0x54, 0xbc, 0xd7, 0x4d, 0xb6, 0x3d,
  0x45, 0x64, 0xce, 0x3d, 0x8b, 0xda, 0x85, 0xbe, 0x78, 0x7d, 0x15, 0xbc,
  0x4d, 0x01, 0xa9, 0x3d, 0x7d, 0xc8, 0x12, 0x3e, 0x7f, 0x78, 0x63, 0xbe,
  0x5e, 0x23, 0x2a, 0x3e, 0xa4, 0xc1, 0xf5, 0xbd, 0x7d, 0xe0, 0x95, 0xbc,
  0x65, 0xdb, 0x80, 0xbe, 0xfe, 0xda, 0x8b, 0x3d, 0xad, 0x9a, 0x59, 0xbe,
  0xc1, 0x6b, 0x9b, 0xbd, 0x9a, 0x32, 0x94, 0xba, 0x74, 0x54, 0x85, 0xbe,
  0x5c, 0x0d, 0x02, 0xbd, 0x98, 0x71, 0xb1, 0xbd, 0x2b, 0x71, 0x1f, 0x3e,
  0xbb, 0xb4, 0x9a, 0xbd, 0x7f, 0x70, 0x2a, 0xbe, 0xaa, 0xbd, 0xa4, 0x3d,
  0x96, 0x18, 0xd1, 0xba, 0x3b, 0x86, 0xf3, 0xbc, 0xab, 0x04, 0x3b, 0xbe,
  0xa4, 0x61, 0x2c, 0x3e, 0x6b, 0xfd, 0xe4, 0x3d, 0x4f, 0xfc, 0xd9, 0xbd,
  0x94, 0xaf, 0x60, 0xbc, 0xa9, 0x9f, 0x19, 0x3e, 0xcc, 0x72, 0x5f, 0xbd,
  0xd5, 0x32, 0x65, 0xbe, 0x43, 0x3c, 0x4d, 0xbe, 0xf6, 0x5b, 0xc6, 0xbd,
  0x77, 0xcd, 0x1c, 0xbe, 0x4e, 0xf2, 0xc2, 0x3c, 0xde, 0x9c, 0x00, 0xbe,
  0x84, 0x85, 0xa2, 0x3d, 0xf4, 0x90, 0xe5, 0xbd, 0xe2, 0xe6, 0x94, 0xbd,
  0xb6, 0x7d, 0x03, 0xbe, 0x05, 0xe1, 0xa6, 0xbd, 0x5e, 0x48, 0xb3, 0x3c,
  0x30, 0x6a, 0x25, 0x3e, 0x60, 0xa4, 0x52, 0xbd, 0xc0, 0x99, 0x16, 0xbe,
  0x84, 0x7e, 0xd8, 0x3d, 0xa4, 0xc8, 0xf6, 0x3c, 0x20, 0xaf, 0x51, 0x3d,
  0x10, 0x6c, 0x47, 0xbe, 0x80, 0x0e, 0x3e, 0x3e, 0x60, 0x4e, 0x60, 0x3d,
  0x3a, 0x31, 0x32, 0x3b, 0x68, 0x5d, 0xa7, 0xbd, 0x9e, 0x00, 0x9c, 0x3d,
  0xfb, 0xb6, 0x51, 0x3e, 0x1b, 0xcf, 0x09, 0xbe, 0xac, 0x87, 0x2b, 0xbe,
  0xc6, 0x83, 0x3c, 0xbe, 0x68, 0x72, 0x15, 0x3e, 0xeb, 0x46, 0x20, 0x3e,
  0xf6, 0x5b, 0xf7, 0xbc, 0x26, 0x18, 0x80, 0xbd, 0x42, 0x68, 0xc8, 0xbd,
  0x45, 0xac, 0x6b, 0x3c, 0xd8, 0x37, 0x5f, 0xbe, 0x17, 0x05, 0xb3, 0xbe,
  0x62, 0x6d, 0x04, 0x3e, 0xa4, 0xc5, 0xa3, 0xbe, 0x62, 0x7f, 0x2b, 0xbe,
  0x25, 0x37, 0x0b, 0x3d, 0x91, 0x5a, 0x91, 0xbe, 0x78, 0x69, 0x66, 0xbe,
  0x5c, 0xda, 0xa3, 0x3e, 0x96, 0x5d, 0x04, 0xbc, 0x3d, 0xfc, 0x7e, 0xbd,
  0x9c, 0xbe, 0x4e, 0xbe, 0xfc, 0x0f, 0x2d, 0x3e, 0x1f, 0x41, 0xbf, 0xbd,
  0x08, 0xde, 0x2b, 0xbe, 0x03, 0xd9, 0x01, 0xbe, 0x6f, 0xcc, 0xec, 0xbb,
  0x3f, 0x2d, 0xad, 0xbd, 0x8c, 0x68, 0xef, 0xbc, 0x6e, 0x8f, 0xef, 0xbc,
  0x54, 0x6d, 0x43, 0x3e, 0xe2, 0xdd, 0xff, 0xff, 0x10, 0x00, 0x00, 0x00,
  0x0a, 0x00, 0x00, 0x00, 0x1c, 0x00, 0x00, 0x00, 0x38, 0x00, 0x00, 0x00,
  0x04, 0x00, 0x00, 0x00, 0x10, 0x00, 0x00, 0x00, 0x04, 0x00, 0x00, 0x00,
  0x01, 0x00, 0x00, 0x00, 0x08, 0x00, 0x00, 0x00, 0x1a, 0x00, 0x00, 0x00,
  0x73, 0x65, 0x71, 0x75, 0x65, 0x6e, 0x74, 0x69, 0x61, 0x6c, 0x2f, 0x63,
  0x6f, 0x6e, 0x76, 0x32, 0x64, 0x5f, 0x31, 0x2f, 0x43, 0x6f, 0x6e, 0x76,
  0x32, 0x44, 0x00, 0x00, 0x58, 0xdd, 0xff, 0xff, 0x62, 0xde, 0xff, 0xff,
  0x04, 0x00, 0x00, 0x00, 0x80, 0x01, 0x00, 0x00, 0x14, 0xf7, 0xa3, 0x3d,
  0x36, 0xc2, 0x19, 0xbe, 0xde, 0xd8, 0xe1, 0x3d, 0xa4, 0x13, 0x91, 0x3d,
  0xb1, 0x79, 0x97, 0x3b, 0x9d, 0x93, 0x0b, 0x3e, 0x7b, 0x40, 0x26, 0xbe,
  0x30, 0xde, 0x8f, 0x3d, 0x50, 0xa6, 0x2c, 0xbe, 0x1a, 0x5e, 0x20, 0xbd,
  0x42, 0xb2, 0x46, 0xbd, 0x7b, 0xc5, 0x06, 0x3e, 0x7e, 0xbd, 0x35, 0xbe,
  0x30, 0xe9, 0x84, 0x3d, 0xb8, 0xe3, 0x10, 0x3d, 0x16, 0xc1, 0x40, 0xbe,
  0x9d, 0x06, 0x93, 0xbd, 0x01, 0x2c, 0xf8, 0x3d, 0xef, 0xd5, 0x12, 0x3d,
  0x74, 0xde, 0x10, 0x3c, 0xed, 0xe1, 0x02, 0xbe, 0xdc, 0x1b, 0x76, 0x3e,
  0xeb, 0x6e, 0x08, 0xbe, 0x0b, 0x89, 0x1b, 0x3d, 0xbd, 0xd0, 0x38, 0xbe,
  0xc3, 0xb5, 0xc5, 0x3c, 0x1b, 0x76, 0x96, 0xbd, 0x9d, 0x8a, 0xaf, 0xbd,
  0xc8, 0xe7, 0x16, 0x3a, 0x91, 0x05, 0x43, 0x3d, 0xe8, 0xf0, 0x85, 0xbd,
  0xcb, 0x13, 0x90, 0xbd, 0x29, 0x73, 0x0c, 0x3e, 0x32, 0xa4, 0x9c, 0xbd,
  0xf0, 0xe3, 0xa1, 0xbd, 0x56, 0x70, 0x22, 0x3d, 0x53, 0x37, 0xd9, 0xbc,
  0xa1, 0x75, 0x39, 0xbe, 0x45, 0x82, 0xa2, 0x3d, 0x11, 0x7b, 0xd3, 0x3d,
  0x47, 0x40, 0x21, 0xbe, 0x20, 0xb0, 0xba, 0xbd, 0xb7, 0x35, 0xc7, 0x3d,
  0xa9, 0xd4, 0xaf, 0x3d, 0x72, 0x0b, 0xad, 0xbd, 0x18, 0x98, 0xc8, 0xbd,
  0x56, 0x5c, 0x1f, 0xbe, 0xed, 0x77, 0x82, 0xbd, 0x1a, 0xd5, 0x0d, 0x3e,
  0xa0, 0x9b, 0x25, 0x3d, 0xa7, 0xe0, 0xd3, 0x3d, 0xe3, 0x68, 0x99, 0xbd,
  0x8c, 0x22, 0x3b, 0xbe, 0x8b, 0x47, 0x55, 0xbd, 0xe5, 0x22, 0x59, 0xbe,
  0x95, 0x11, 0xc3, 0x3d, 0x64, 0xa9, 0x40, 0xbd, 0x04, 0x63, 0xa2, 0x3d,
  0xe6, 0x33, 0x28, 0xbe, 0xe3, 0x75, 0x43, 0x3e, 0x83, 0x55, 0x30, 0xbd,
  0x8f, 0x39, 0x21, 0x3c, 0x49, 0x89, 0xe3, 0xbd, 0xdf, 0xb7, 0x8a, 0xbd,
  0x9d, 0xc2, 0x3b, 0xbe, 0x34, 0xaf, 0xef, 0x3d, 0x18, 0xac, 0x0d, 0x3e,
  0x99, 0xed, 0xce, 0x3d, 0xcc, 0x72, 0x87, 0xbd, 0x55, 0xfa, 0x81, 0x3d,
  0x2d, 0x95, 0xd0, 0x3d, 0x9d, 0x65, 0xc4, 0xbd, 0x41, 0xd1, 0x2d, 0xbc,
  0x4b, 0x23, 0x99, 0xba, 0x3f, 0x68, 0x66, 0xbd, 0x86, 0xdd, 0x9e, 0xbd,
  0x73, 0x9e, 0xb7, 0xbc, 0x0b, 0x2c, 0xee, 0x3c, 0x27, 0xcf, 0x3b, 0xbe,
  0x12, 0xd2, 0x34, 0x3e, 0x12, 0x9f, 0xb9, 0xbd, 0x2e, 0xd9, 0x2c, 0xbe,
  0x59, 0xec, 0x09, 0xbe, 0x16, 0x8d, 0x51, 0x3d, 0x74, 0x75, 0x41, 0x3d,
  0x7e, 0xc2, 0x4e, 0x3d, 0x71, 0x27, 0xb4, 0xbd, 0xa4, 0x70, 0x58, 0x3d,
  0x57, 0x69, 0x40, 0xbe, 0xf7, 0xa9, 0xf7, 0xbd, 0x47, 0xb0, 0xa2, 0xbd,
  0xf0, 0x88, 0x25, 0xbe, 0x07, 0x10, 0x31, 0x3d, 0x41, 0x25, 0x4b, 0xbe,
  0xd2, 0x54, 0x14, 0xbe, 0x65, 0x7a, 0x0a, 0xbc, 0xba, 0xdf, 0xff, 0xff,
  0x10, 0x00, 0x00, 0x00, 0x09, 0x00, 0x00, 0x00, 0x1c, 0x00, 0x00, 0x00,
  0x38, 0x00, 0x00, 0x00, 0x04, 0x00, 0x00, 0x00, 0x08, 0x00, 0x00, 0x00,
  0x04, 0x00, 0x00, 0x00, 0x03, 0x00, 0x00, 0x00, 0x01, 0x00, 0x00, 0x00,
  0x18, 0x00, 0x00, 0x00, 0x73, 0x65, 0x71, 0x75, 0x65, 0x6e, 0x74, 0x69,
  0x61, 0x6c, 0x2f, 0x63, 0x6f, 0x6e, 0x76, 0x32, 0x64, 0x2f, 0x43, 0x6f,
  0x6e, 0x76, 0x32, 0x44, 0x00, 0x00, 0x00, 0x00, 0x30, 0xdf, 0xff, 0xff,
  0x3a, 0xe0, 0xff, 0xff, 0x04, 0x00, 0x00, 0x00, 0x00, 0x01, 0x00, 0x00,
  0x6d, 0xf7, 0x80, 0x3e, 0xbb, 0x8f, 0x5f, 0x3d, 0x4f, 0x9d, 0x10, 0xbc,
  0xce, 0x3a, 0x9b, 0xbd, 0x46, 0x5f, 0x67, 0xbe, 0x7c, 0xb5, 0x85, 0x3e,
  0x36, 0xcb, 0xb7, 0x3e, 0x13, 0x35, 0x6c, 0x3e, 0x95, 0x44, 0x88, 0x3e,
  0x7b, 0x33, 0x02, 0xbd, 0x51, 0x90, 0x29, 0x3e, 0xad, 0x6d, 0xb7, 0xbd,
  0x06, 0x68, 0xe0, 0xbe, 0x72, 0xea, 0x71, 0x3e, 0xb0, 0x9b, 0x1f, 0x3e,
  0x77, 0x36, 0x56, 0xbd, 0x62, 0xb8, 0x98, 0x3e, 0x69, 0x02, 0x08, 0xbe,
  0x6a, 0xa7, 0xdd, 0x3e, 0x79, 0x5a, 0x89, 0x3c, 0xf5, 0xfb, 0x52, 0xbe,
  0x03, 0xd6, 0x9f, 0x3e, 0xa9, 0x7a, 0xa3, 0xbe, 0x3a, 0x24, 0xc8, 0xbe,
  0x30, 0x68, 0xae, 0x3e, 0x6e, 0x93, 0x3b, 0xbe, 0xb0, 0x90, 0x9a, 0xbd,
  0xa4, 0x21, 0xe5, 0xbd, 0xdd, 0x62, 0x71, 0x3e, 0x5c, 0xd7, 0x83, 0x3e,
  0xf9, 0x2a, 0x9f, 0xbd, 0x45, 0xaf, 0x3c, 0xbe, 0x14, 0x10, 0x86, 0x3e,
  0xe0, 0xdc, 0x0f, 0x3e, 0x73, 0xef, 0x68, 0xbe, 0xc8, 0x20, 0xf5, 0x3b,
  0xd0, 0x53, 0x4d, 0xbe, 0x0c, 0x09, 0x6a, 0x3e, 0xf5, 0xba, 0xd8, 0xbe,
  0x10, 0x72, 0xea, 0x3e, 0x56, 0xd7, 0x3b, 0x3e, 0x27, 0x30, 0x48, 0xbd,
  0xbe, 0xce, 0xcd, 0xbd, 0x68, 0x18, 0x3d, 0xbe, 0x8d, 0x9b, 0xea, 0x3e,
  0xa8, 0x8c, 0x84, 0x3e, 0x50, 0xba, 0x57, 0xbd, 0x55, 0xd1, 0x33, 0xbd,
  0x01, 0xc6, 0x96, 0x3e, 0xa3, 0xa7, 0xaa, 0x3d, 0xfe, 0x06, 0x41, 0x3e,
  0xd1, 0x5a, 0xae, 0xbc, 0x1a, 0x1e, 0x2b, 0xbe, 0xac, 0xbf, 0xef, 0xbe,
  0x4a, 0x09, 0x81, 0x3e, 0x7d, 0xa4, 0xef, 0xbe, 0xd1, 0x77, 0x84, 0xbe,
  0x6e, 0x62, 0x82, 0xbe, 0x84, 0xb3, 0x02, 0xbe, 0xa6, 0xc6, 0xca, 0xbe,
  0x45, 0xe6, 0xdc, 0x3c, 0xa5, 0x81, 0x9f, 0x3e, 0x6a, 0xcd, 0xf3, 0xbe,
  0x10, 0xb2, 0xa8, 0x3e, 0x12, 0xe1, 0xff, 0xff, 0x10, 0x00, 0x00, 0x00,
  0x08, 0x00, 0x00, 0x00, 0x14, 0x00, 0x00, 0x00, 0x30, 0x00, 0x00, 0x00,
  0x02, 0x00, 0x00, 0x00, 0x04, 0x00, 0x00, 0x00, 0x10, 0x00, 0x00, 0x00,
  0x19, 0x00, 0x00, 0x00, 0x73, 0x65, 0x71, 0x75, 0x65, 0x6e, 0x74, 0x69,
  0x61, 0x6c, 0x2f, 0x64, 0x65, 0x6e, 0x73, 0x65, 0x5f, 0x31, 0x2f, 0x4d,
  0x61, 0x74, 0x4d, 0x75, 0x6c, 0x00, 0x00, 0x00, 0x80, 0xe0, 0xff, 0xff,
  0x8a, 0xe1, 0xff, 0xff, 0x04, 0x00, 0x00, 0x00, 0x00, 0x1c, 0x00, 0x00,
  0x66, 0xc7, 0xb6, 0xbc, 0xb7, 0xb2, 0x8e, 0xbe, 0xe1, 0xfe, 0xbf, 0x3d,
  0x55, 0xff, 0x02, 0x3e, 0xff, 0xc2, 0xf5, 0xbd, 0x1f, 0x8e, 0xa2, 0x3c,
  0xa4, 0x14, 0xf6, 0x3d, 0xf1, 0xdc, 0x1e, 0x3d, 0x68, 0xa4, 0xbb, 0xbd,
  0xeb, 0xf4, 0x3f, 0xbe, 0xcc, 0x0d, 0x45, 0xbe, 0x18, 0x78, 0xf8, 0x3d,
  0x72, 0xc3, 0xe1, 0x3d, 0x30, 0x77, 0x25, 0x3e, 0x0a, 0x7b, 0x96, 0x3e,
  0xbd, 0x95, 0xe1, 0xbd, 0xb0, 0xde, 0x1a, 0x3d, 0x5a, 0xb4, 0xab, 0xbc,
  0x83, 0x97, 0xb4, 0x3d, 0x64, 0xcf, 0x29, 0x3e, 0x98, 0xf5, 0xf2, 0xbd,
  0x60, 0x13, 0x92, 0x3d, 0x9a, 0x31, 0x7c, 0x3c, 0x6a, 0xd1, 0x2d, 0x3d,
  0xf3, 0x43, 0x15, 0x3d, 0x25, 0x49, 0xdc, 0x3d, 0xa6, 0xd2, 0xa3, 0x3d,
  0x29, 0x80, 0x8b, 0xbd, 0x7d, 0x29, 0xba, 0xbe, 0x9b, 0xfa, 0x00, 0x3e,
  0x49, 0xac, 0x53, 0x3e, 0x77, 0xfc, 0x86, 0xbe, 0x79, 0x87, 0xeb, 0xbd,
  0x18, 0xbb, 0x0d, 0x3e, 0xd0, 0x45, 0x06, 0x3d, 0xce, 0x03, 0x02, 0xbe,
  0xb2, 0x31, 0x5c, 0xbc, 0xec, 0x5d, 0xb4, 0xbd, 0x9a, 0xf6, 0xe1, 0xbd,
  0x9f, 0x22, 0x0f, 0x3e, 0xdb, 0x9f, 0x31, 0xbd, 0x7d, 0xfc, 0x94, 0xbd,
  0x0b, 0xb8, 0xda, 0x3d, 0x01, 0xa1, 0xfc, 0x3d, 0x32, 0x17, 0xa5, 0xbe,
  0x0c, 0x95, 0x40, 0xbd, 0x3a, 0xa4, 0x10, 0x3e, 0xb3, 0x5e, 0x1f, 0xbe,
  0xac, 0x9d, 0x13, 0xbe, 0x49, 0x2a, 0xb5, 0x3d, 0x3a, 0xe4, 0xfe, 0x3c,
  0x1e, 0xa6, 0x4b, 0x3d, 0x34, 0x62, 0xf3, 0xbc, 0x25, 0x0d, 0xdc, 0xbd,
  0x25, 0xd3, 0xf7, 0x3d, 0x32, 0xe3, 0x60, 0xb9, 0xc2, 0xfb, 0xb9, 0xbd,
  0x2d, 0x69, 0x1a, 0x3e, 0xba, 0x9d, 0x2f, 0x3b, 0xca, 0x0b, 0xc4, 0x3c,
  0xcc, 0xab, 0x81, 0xbe, 0x9a, 0x0c, 0x22, 0xbe, 0xa7, 0xc4, 0xd5, 0xbd,
  0x5b, 0x81, 0x8b, 0xbd, 0xf9, 0x8b, 0xe4, 0xbd, 0x34, 0x36, 0xa6, 0x3c,
  0x0b, 0x72, 0xaa, 0x3d, 0xc1, 0x0f, 0xd4, 0xba, 0x83, 0xf0, 0x70, 0x3d,
  0x1f, 0xfa, 0x89, 0x3c, 0x61, 0x21, 0x09, 0x3e, 0x06, 0x9f, 0x93, 0x3d,
  0xca, 0x32, 0x18, 0xbe, 0x71, 0xdd, 0x41, 0x3e, 0xef, 0xe2, 0xa2, 0x3c,
  0x6b, 0x45, 0xc6, 0xbc, 0x3c, 0x25, 0x47, 0xbe, 0x62, 0x5d, 0xb0, 0x3b,
  0x85, 0xe7, 0x3f, 0xbd, 0x69, 0xf3, 0x60, 0x3d, 0x16, 0xb1, 0x3d, 0xbe,
  0x73, 0x58, 0x90, 0xbb, 0x26, 0x43, 0xbc, 0xbd, 0x97, 0x45, 0x6d, 0xbd,
  0x6d, 0xd2, 0xfc, 0xbd, 0x95, 0xc5, 0x38, 0xbd, 0xfb, 0xbf, 0xb5, 0x3d,
  0x39, 0x16, 0xae, 0x3c, 0x27, 0xbd, 0x1b, 0xbd, 0xd9, 0x89, 0x0e, 0x3d,
  0xbd, 0x8f, 0x65, 0x3d, 0x16, 0x55, 0x09, 0xbe, 0xdc, 0x6e, 0xd1, 0x3d,
  0x2c, 0xc8, 0xc5, 0xbd, 0x44, 0xe1, 0x04, 0x3d, 0x63, 0xb5, 0x37, 0xbe,
  0x08, 0x29, 0x36, 0xbd, 0x95, 0xa6, 0xe0, 0xbd, 0x4c, 0x81, 0x4e, 0xbd,
  0x51, 0x4e, 0x83, 0xbc, 0x1a, 0x7d, 0x04, 0xbd, 0x20, 0x21, 0xed, 0xbd,
  0x75, 0x96, 0xd1, 0x3d, 0x32, 0x4e, 0xfa, 0xbd, 0xda, 0x98, 0x48, 0xbd,
  0xf8, 0x35, 0x21, 0x3d, 0xd3, 0x41, 0xa8, 0xbd, 0x37, 0xb8, 0xa8, 0x3d,
  0xa3, 0x3d, 0x80, 0x3d, 0xaa, 0xa3, 0x1d, 0xbd, 0x39, 0x50, 0xff, 0xbd,
  0x55, 0x4c, 0x85, 0x3c, 0xc1, 0x0e, 0x7c, 0xbe, 0x91, 0xdf, 0xdf, 0x3e,
  0x9d, 0x0d, 0x38, 0xbe, 0x61, 0x8a, 0xba, 0xbd, 0x72, 0x04, 0xfc, 0xb8,
  0xf0, 0xb2, 0xb4, 0x3d, 0xad, 0x41, 0x24, 0xbc, 0x8c, 0xe3, 0x1b, 0xbd,
  0xb9, 0xee, 0xe8, 0xbc, 0x30, 0xc1, 0x70, 0x3b, 0x8d, 0xa1, 0xbb, 0x3e,
  0x47, 0x0e, 0x15, 0xbe, 0x92, 0xe3, 0x16, 0x3e, 0x06, 0xa7, 0xae, 0xbe,
  0xdc, 0x80, 0x54, 0x3d, 0xfa, 0xa8, 0x90, 0xbe, 0x68, 0x3d, 0xb8, 0xbd,
  0x4d, 0x57, 0x82, 0x3e, 0x0c, 0x42, 0x19, 0xbe, 0x75, 0x4a, 0xd1, 0xbc,
  0xb9, 0x60, 0x3f, 0x3e, 0xb6, 0x24, 0x75, 0x3c, 0x88, 0x2b, 0x94, 0x3d,
  0x18, 0xea, 0xba, 0xbd, 0x52, 0xbb, 0x4d, 0xbc, 0xa0, 0x97, 0x1c, 0xbe,
  0xb3, 0x7a, 0x28, 0x3d, 0xe0, 0x55, 0x63, 0x3d, 0xfc, 0xce, 0xab, 0xbd,
  0x25, 0x6e, 0x39, 0xbe, 0x5c, 0x0b, 0x96, 0xbd, 0x1a, 0xf2, 0x49, 0xbe,
  0x4c, 0x6b, 0x83, 0xbd, 0x96, 0x3c, 0xa2, 0xbd, 0x8f, 0x03, 0xf7, 0x3d,
  0xf0, 0x9c, 0x8e, 0x3d, 0x2d, 0x5f, 0xa3, 0x3d, 0xeb, 0xb7, 0x90, 0xbd,
  0x2b, 0x99, 0x51, 0xbe, 0x4b, 0xb7, 0xc2, 0xbd, 0xe7, 0x50, 0x01, 0xbd,
  0xb2, 0x45, 0xb6, 0xbd, 0xfa, 0x60, 0x4f, 0xbc, 0x62, 0x88, 0x02, 0xbd,
  0xc6, 0x6b, 0x20, 0x3d, 0x45, 0xdd, 0xa8, 0xbc, 0x66, 0x0e, 0x9c, 0x3b,
  0x4b, 0x39, 0x61, 0xbe, 0x23, 0x4a, 0x54, 0xbd, 0xa8, 0x0b, 0x00, 0x3d,
  0x3d, 0xee, 0xea, 0xbd, 0x07, 0xfb, 0x97, 0xbc, 0x1f, 0x2f, 0xcf, 0x3d,
  0x3b, 0x78, 0xb4, 0xbd, 0x3b, 0x39, 0x5c, 0x3e, 0xb3, 0x36, 0x18, 0xbd,
  0xc7, 0x41, 0x25, 0xbd, 0x57, 0xb7, 0x64, 0x3e, 0x51, 0xb6, 0xfd, 0x3d,
  0xb8, 0x22, 0x16, 0xbe, 0x5f, 0x8d, 0x27, 0xbe, 0x16, 0x07, 0xf2, 0xbc,
  0x94, 0x1f, 0x1b, 0x3e, 0x77, 0xbc, 0x05, 0x3e, 0x40, 0x14, 0xda, 0x3b,
  0xc9, 0xa3, 0x03, 0x3e, 0x13, 0x85, 0xf7, 0x3d, 0x85, 0x4d, 0xaf, 0x3c,
  0x4b, 0x4c, 0x54, 0xbc, 0x32, 0xcc, 0x3c, 0x3d, 0x4a, 0xd0, 0x50, 0x3e,
  0xaa, 0xdd, 0xe6, 0xbc, 0x71, 0xb9, 0xc5, 0xbd, 0x4d, 0xc7, 0xb2, 0xbc,
  0x43, 0x3e, 0x0e, 0x3e, 0xf5, 0xdd, 0x90, 0x3d, 0x25, 0xd5, 0xb0, 0xbd,
  0x63, 0x05, 0x4b, 0xbd, 0x5c, 0xbe, 0x68, 0x3c, 0x7e, 0x7d, 0x30, 0xbd,
  0x5e, 0x94, 0x67, 0xbc, 0x43, 0x81, 0xc0, 0x3d, 0x49, 0xc1, 0xb2, 0x3d,
  0xd1, 0x97, 0x23, 0x3e, 0x85, 0xc9, 0x16, 0x3e, 0x25, 0xce, 0x64, 0xbd,
  0x18, 0xd0, 0x2c, 0x3e, 0x9a, 0xc0, 0x33, 0xbe, 0x2b, 0x8a, 0xe0, 0xbd,
  0x7b, 0xc4, 0x00, 0x3e, 0xa4, 0x90, 0x44, 0x3d, 0xc3, 0x13, 0x9a, 0xba,
  0xe6, 0x0b, 0xb4, 0xbd, 0xe9, 0x69, 0xa3, 0xbd, 0x6b, 0x15, 0x26, 0x3e,
  0x89, 0x36, 0x94, 0xbd, 0xb8, 0x12, 0x0a, 0x3d, 0x35, 0x77, 0xe2, 0xbd,
  0x61, 0xf7, 0x3d, 0xbd, 0xfd, 0xed, 0x55, 0x3d, 0xae, 0x2d, 0x23, 0x3d,
  0x4f, 0xc7, 0xb6, 0x3d, 0xbf, 0x48, 0x32, 0x3e, 0x8e, 0x36, 0x55, 0xbd,
  0xb4, 0x04, 0xf5, 0xbd, 0xd0, 0xc9, 0x49, 0x3d, 0xfe, 0x8d, 0x32, 0xbe,
  0x39, 0x62, 0xa1, 0xbd, 0x87, 0x99, 0x5e, 0xbb, 0xf4, 0x6d, 0x5f, 0x3c,
  0x15, 0x0d, 0xe8, 0x3d, 0xff, 0xe0, 0x08, 0xbd, 0x96, 0xeb, 0x7f, 0xbe,
  0xa3, 0xab, 0x77, 0xbe, 0x03, 0x26, 0xe6, 0xbd, 0x4d, 0x68, 0xaa, 0x3d,
  0x22, 0x2b, 0x51, 0xbd, 0x74, 0x4d, 0x7f, 0xbe, 0x2e, 0x6b, 0xbf, 0x3c,
  0xe4, 0xcb, 0x40, 0xbe, 0x60, 0x0b, 0xfd, 0x3d, 0x36, 0xeb, 0xdb, 0xbd,
  0x4b, 0x14, 0xf5, 0x3c, 0x76, 0x85, 0xc7, 0x3d, 0xd3, 0xa3, 0x07, 0x3e,
  0xab, 0x43, 0x26, 0xbe, 0x4f, 0x75, 0x25, 0xbd, 0xc0, 0x66, 0x6f, 0xbe,
  0x04, 0x4f, 0x08, 0xbe, 0x8b, 0xb7, 0x9c, 0xbd, 0x72, 0x16, 0x14, 0xbd,
  0x0e, 0xd5, 0x0a, 0xbe, 0x41, 0x00, 0xcc, 0x3d, 0xe8, 0x50, 0x9c, 0xbd,
  0xff, 0x5a, 0x49, 0xbe, 0x58, 0xc3, 0x4b, 0xbe, 0xbc, 0xaf, 0x49, 0xbe,
  0x06, 0x60, 0x22, 0xbd, 0x53, 0x4f, 0x35, 0xbe, 0x51, 0xbd, 0xa4, 0x3d,
  0xb8, 0x86, 0xbd, 0xbd, 0x19, 0x98, 0x86, 0x3d, 0xe2, 0xb1, 0xb8, 0x3d,
  0xb9, 0xa6, 0x01, 0xbe, 0x3d, 0xe2, 0xc5, 0x3d, 0x69, 0xaa, 0xc0, 0x3c,
  0xba, 0xf7, 0x42, 0xbe, 0xff, 0x9d, 0xa1, 0x3a, 0x08, 0x48, 0x81, 0xbd,
  0x27, 0x75, 0x69, 0xbe, 0xc7, 0x6a, 0x2e, 0x3e, 0x4c, 0x0e, 0x55, 0xbe,
  0x88, 0x7a, 0xf0, 0xbc, 0x69, 0x66, 0xce, 0x3c, 0x50, 0xe6, 0xd4, 0x3d,
  0xa9, 0xa5, 0xbc, 0xbc, 0x98, 0x42, 0x67, 0xbe, 0x89, 0xd3, 0x83, 0xbd,
  0x91, 0x14, 0x33, 0x3e, 0x61, 0x0c, 0x12, 0x3e, 0x2f, 0x43, 0xd0, 0xbd,
  0x1f, 0x48, 0x39, 0xbd, 0xff, 0x87, 0x2f, 0xbe, 0x4e, 0x31, 0xfa, 0xbd,
  0xf0, 0x19, 0x8a, 0x3d, 0xba, 0x5f, 0xca, 0x3d, 0x8f, 0x87, 0x29, 0x3e,
  0xdf, 0xbf, 0x1b, 0xbe, 0xc4, 0x62, 0xe4, 0xbd, 0xe5, 0x6d, 0x29, 0x3e,
  0x59, 0x51, 0x8f, 0x3d, 0x46, 0x1f, 0xc9, 0x3d, 0xf7, 0xa1, 0x47, 0x3a,
  0x42, 0xda, 0xc6, 0xbe, 0x41, 0x3f, 0xc7, 0xbd, 0xff, 0xcc, 0x21, 0xbe,
  0x8c, 0x2c, 0xc9, 0xbc, 0x99, 0xc8, 0x7d, 0xbe, 0x08, 0x6e, 0x93, 0x3d,
  0x6e, 0x22, 0x07, 0xbe, 0xdf, 0x2d, 0x74, 0x3b, 0xef, 0x51, 0xdc, 0xbc,
  0x89, 0x44, 0xff, 0x3d, 0x44, 0xfa, 0xa8, 0xbd, 0xe8, 0x36, 0x6f, 0x3d,
  0x08, 0x88, 0xe1, 0x3d, 0x33, 0x76, 0x1f, 0xbd, 0x54, 0x9c, 0x18, 0x3d,
  0x5c, 0x62, 0x75, 0xbd, 0x9a, 0xbc, 0xa6, 0xbc, 0x1a, 0x3e, 0xd8, 0xbd,
  0xfc, 0x6a, 0xc5, 0x3d, 0xe5, 0xed, 0xaf, 0x3d, 0xc7, 0x3e, 0x7f, 0xbe,
  0xd3, 0x41, 0x13, 0x3d, 0xf8, 0xcb, 0x4d, 0x3d, 0x3c, 0x1b, 0x09, 0xbe,
  0x14, 0xdf, 0x95, 0x3d, 0xa8, 0xcf, 0x2c, 0x3c, 0xe3, 0x71, 0x05, 0xbe,
  0x68, 0xb0, 0x42, 0xbe, 0x42, 0x11, 0x40, 0x3e, 0x15, 0x6f, 0x55, 0x3d,
  0xde, 0x86, 0xb8, 0x3d, 0xcb, 0x0c, 0xe0, 0x3c, 0xa6, 0x75, 0xd9, 0xbd,
  0x8f, 0xd1, 0x29, 0xbe, 0x78, 0xa8, 0x9f, 0x3d, 0x5c, 0xe6, 0xfb, 0xbd,
  0xe7, 0xa8, 0x2f, 0xbe, 0x26, 0xf5, 0x2e, 0xbe, 0x7e, 0x47, 0xeb, 0xbd,
  0x55, 0x14, 0x17, 0xbe, 0x5d, 0x23, 0x52, 0xbe, 0x20, 0x5c, 0x74, 0xbd,
  0x11, 0x96, 0x7a, 0xbe, 0x27, 0x7f, 0x3e, 0xbe, 0x8b, 0xdc, 0xac, 0xbd,
  0x4d, 0x9a, 0xce, 0x3d, 0xff, 0x45, 0x0e, 0x3d, 0x90, 0xdd, 0x52, 0xbd,
  0x58, 0xab, 0x75, 0xbd, 0xf1, 0x9b, 0x2a, 0x3e, 0xf7, 0xad, 0x3b, 0x3d,
  0x36, 0x27, 0x22, 0xbe, 0xc2, 0xfa, 0x25, 0x3d, 0x22, 0x31, 0x61, 0xbe,
  0x7a, 0xb8, 0xa0, 0x3d, 0x27, 0xdd, 0xa2, 0xbc, 0xca, 0xad, 0x02, 0x3d,
  0x0f, 0xc6, 0x81, 0xbb, 0xb6, 0xba, 0x31, 0xbc, 0x2c, 0xc6, 0x78, 0xbb,
  0xff, 0x24, 0xbb, 0xbd, 0xf5, 0xdc, 0x6a, 0x3d, 0xb3, 0x89, 0xff, 0x3c,
  0x72, 0x9c, 0xdc, 0x3d, 0xb7, 0xe1, 0x2d, 0x3d, 0x8e, 0xa0, 0xcf, 0x3a,
  0x9e, 0xd7, 0xb2, 0xbe, 0x6a, 0x19, 0xaf, 0x3a, 0x0e, 0x68, 0x20, 0xbc,
  0x9a, 0xcd, 0x6f, 0xbe, 0x72, 0x2e, 0x1a, 0xbc, 0xf3, 0x50, 0xc6, 0xbd,
  0xc9, 0x34, 0x94, 0xbc, 0x35, 0xe8, 0x10, 0x3e, 0xc2, 0x2d, 0x52, 0x3c,
  0x38, 0xa2, 0xd1, 0x3c, 0xbc, 0xe5, 0x3e, 0xbe, 0x8f, 0xc9, 0xbd, 0x3d,
  0x1c, 0xb5, 0xdb, 0x3c, 0xd2, 0x7d, 0x51, 0xbe, 0x6a, 0x5e, 0x6c, 0x3d,
  0xc6, 0xb4, 0x92, 0xbc, 0x6c, 0x45, 0xae, 0xbe, 0x32, 0x9f, 0x6e, 0x3c,
  0x10, 0x7a, 0x7f, 0xbd, 0x70, 0x6f, 0x8b, 0xbe, 0xae, 0xf7, 0xb0, 0x3c,
  0x74, 0x06, 0x39, 0xbe, 0x97, 0x80, 0x95, 0xbc, 0xe4, 0xf6, 0xe5, 0x3c,
  0xa0, 0x1a, 0x6a, 0x3c, 0x6d, 0x75, 0xe6, 0xbc, 0xe1, 0x75, 0x93, 0xbd,
  0xe8, 0xb2, 0x13, 0x3e, 0x4a, 0x28, 0x10, 0x3d, 0x9a, 0x61, 0x85, 0xbe,
  0xe4, 0x59, 0x81, 0x3b, 0xdb, 0xcd, 0x74, 0x3d, 0xf6, 0xbd, 0xd6, 0xbe,
  0x4b, 0x49, 0x90, 0xbc, 0x28, 0xa7, 0xd6, 0xbb, 0xd0, 0xda, 0xa0, 0xbd,
  0x61, 0x51, 0x39, 0xbb, 0x24, 0x65, 0x3b, 0x3d, 0xfc, 0x24, 0x9b, 0xbc,
  0xbe, 0xa8, 0x39, 0x3e, 0xae, 0x09, 0xed, 0xbc, 0xdd, 0xc0, 0x94, 0xbd,
  0x95, 0x54, 0x2d, 0xbe, 0xf0, 0x43, 0x24, 0x3c, 0x18, 0xac, 0x2d, 0x3e,
  0x80, 0x6d, 0xaf, 0xbd, 0x72, 0x9a, 0x76, 0x3d, 0xa1, 0xf4, 0x37, 0x3e,
  0xfb, 0x9b, 0x9d, 0xbc, 0xd4, 0x34, 0x04, 0x3d, 0x7d, 0x50, 0xa0, 0x3c,
  0xe1, 0xa8, 0x57, 0x3d, 0x70, 0x1c, 0xa7, 0x3c, 0xd2, 0x9b, 0xae, 0xbd,
  0x83, 0xf6, 0x4c, 0xbd, 0xa5, 0x30, 0x29, 0x3e, 0xd3, 0x82, 0x93, 0x3d,
  0x23, 0x10, 0xf0, 0xbd, 0x79, 0x6e, 0xd0, 0xbd, 0x0d, 0x21, 0x8d, 0x3d,
  0x64, 0x64, 0xe0, 0x3d, 0x01, 0x0a, 0x80, 0xbd, 0xc1, 0xaa, 0x07, 0x3e,
  0x14, 0x03, 0x1c, 0x3d, 0x9a, 0x04, 0xaf, 0xbe, 0x54, 0x88, 0x9b, 0xbd,
  0xa9, 0x38, 0xc4, 0x3d, 0x18, 0x60, 0x81, 0xbd, 0x9e, 0x9b, 0x82, 0x3c,
  0xe4, 0x0e, 0x9e, 0xbd, 0xf3, 0x3d, 0x1b, 0x3c, 0xed, 0x49, 0x59, 0x3e,
  0xe7, 0xce, 0xbc, 0x3d, 0x8c, 0x48, 0x17, 0xbe, 0xb0, 0x29, 0xa2, 0xbd,
  0x5f, 0xd9, 0x8b, 0x3e, 0x09, 0x19, 0x7c, 0x3d, 0xe2, 0xc8, 0x9c, 0xbe,
  0x0c, 0x40, 0xc5, 0x3d, 0xcf, 0x47, 0x6e, 0x3d, 0x0e, 0x2e, 0xb8, 0xbe,
  0x64, 0x6b, 0x0a, 0xbd, 0xdd, 0xe2, 0x1e, 0x3e, 0xd7, 0xab, 0xf4, 0xbd,
  0x72, 0x89, 0x18, 0x3b, 0x23, 0xe0, 0x0d, 0xbe, 0x87, 0x9b, 0x97, 0xbb,
  0xe7, 0x02, 0x4b, 0x3e, 0x25, 0xd3, 0xb4, 0x3d, 0x8e, 0x7d, 0x30, 0xbe,
  0x33, 0x11, 0x08, 0x3c, 0x18, 0xb0, 0xf8, 0x3d, 0x9a, 0x76, 0xe0, 0x3d,
  0x9c, 0x82, 0x97, 0xbe, 0x9c, 0x75, 0x41, 0x3d, 0x79, 0x63, 0x3f, 0x3e,
  0xdd, 0x20, 0x62, 0xbe, 0x00, 0x02, 0x90, 0xbe, 0x96, 0xc9, 0x8e, 0xbc,
  0xbd, 0x9d, 0x83, 0x3d, 0xe0, 0xd3, 0x76, 0x3e, 0x16, 0xd9, 0x81, 0xbd,
  0x64, 0xac, 0x92, 0x3c, 0x0c, 0x8c, 0x77, 0x3e, 0x8b, 0x3f, 0xba, 0xbe,
  0x9d, 0x75, 0x67, 0x3e, 0x1d, 0x7e, 0x61, 0x3e, 0x52, 0x02, 0x3c, 0xbe,
  0xe0, 0xd8, 0xb8, 0xbd, 0x16, 0x13, 0xe6, 0x3d, 0x4d, 0x0a, 0xfb, 0x3c,
  0xd3, 0x5d, 0xf8, 0x3e, 0xa9, 0xb3, 0x6b, 0xbe, 0xd4, 0xbf, 0x90, 0xbe,
  0xbc, 0x17, 0xb8, 0xbd, 0xfc, 0x30, 0xe1, 0x3d, 0x0a, 0x44, 0x06, 0x3e,
  0x10, 0xb4, 0x77, 0x3d, 0xd2, 0x35, 0xb0, 0x3d, 0xa4, 0xdb, 0xe6, 0x3c,
  0x62, 0xe6, 0x8d, 0xbe, 0xc7, 0x22, 0xac, 0x3c, 0xc8, 0x6a, 0x0b, 0x3e,
  0x7a, 0x7b, 0xda, 0xbc, 0x6a, 0x27, 0x7e, 0xbe, 0x51, 0xcd, 0x01, 0xbe,
  0x57, 0x53, 0x8e, 0xbd, 0xd2, 0x04, 0xd0, 0x3e, 0x4e, 0x14, 0xc3, 0xbe,
  0x8d, 0x75, 0x34, 0xbd, 0x68, 0x3f, 0x28, 0x3e, 0xdf, 0x5c, 0x80, 0x3d,
  0x27, 0x4c, 0xc9, 0x3d, 0x26, 0x51, 0xed, 0x3d, 0xf1, 0xa2, 0x14, 0xbc,
  0xa6, 0xc5, 0xc3, 0x3d, 0x91, 0x42, 0x93, 0xbc, 0x39, 0x38, 0x07, 0xbd,
  0x49, 0xd2, 0xcf, 0x3c, 0xa9, 0x83, 0xbe, 0xbd, 0x32, 0xb4, 0x35, 0xbe,
  0x50, 0x32, 0x40, 0xbe, 0xb7, 0x01, 0xc9, 0xbd, 0xd6, 0x51, 0x8d, 0x3e,
  0x8a, 0xb6, 0x56, 0xbe, 0x81, 0x51, 0x74, 0xbe, 0xda, 0xb0, 0x6c, 0x3c,
  0x36, 0x9b, 0x17, 0xbc, 0x2d, 0x1f, 0x1f, 0x3e, 0x90, 0x26, 0x48, 0xbe,
  0xf8, 0x6e, 0x33, 0xbe, 0x66, 0x0c, 0x7b, 0x3e, 0x63, 0x8a, 0x2a, 0xbe,
  0x56, 0x67, 0x9a, 0x3d, 0x4d, 0x0c, 0x00, 0x3e, 0x3c, 0x6c, 0x67, 0xbe,
  0x12, 0x53, 0x42, 0xbe, 0x76, 0x94, 0xe4, 0xbc, 0x47, 0x88, 0x13, 0xbc,
  0xb0, 0x68, 0xd4, 0x3d, 0x58, 0xa2, 0xce, 0xbd, 0x29, 0xb8, 0x3a, 0xbe,
  0xbf, 0xb1, 0xc8, 0x3d, 0xcd, 0x9b, 0xc2, 0x3d, 0x62, 0x5c, 0x01, 0xbc,
  0x91, 0xe2, 0x2c, 0x3d, 0xf3, 0x0c, 0x81, 0xbd, 0x9a, 0x51, 0xbd, 0x3e,
  0xca, 0xcc, 0xa2, 0xbe, 0xf9, 0xed, 0x71, 0x3d, 0x4d, 0x3d, 0x10, 0xbc,
  0xcc, 0x2e, 0x0a, 0x3c, 0xb1, 0xfe, 0xa4, 0x3d, 0xff, 0xa6, 0x2e, 0xbe,
  0x57, 0xc5, 0x9f, 0x3c, 0xf5, 0xed, 0x8f, 0x3e, 0x22, 0x92, 0xfb, 0xbd,
  0xcc, 0xb3, 0x2c, 0xbe, 0xa4, 0x41, 0x0c, 0x3e, 0x3c, 0x3d, 0x32, 0x3e,
  0xe7, 0x88, 0xca, 0x3d, 0x91, 0x8c, 0xf2, 0xbd, 0x05, 0x5f, 0xe9, 0xbc,
  0xe2, 0x0b, 0x96, 0x3e, 0x9e, 0xc7, 0x37, 0xbe, 0x7b, 0x23, 0xc5, 0x3d,
  0x55, 0xe1, 0xc8, 0xbd, 0x37, 0xaa, 0x1f, 0xbe, 0x3c, 0x54, 0x22, 0xbe,
  0xde, 0x63, 0x45, 0xbd, 0x08, 0x5f, 0x82, 0x3c, 0x38, 0x23, 0x95, 0x3e,
  0x8f, 0x58, 0x1c, 0xbe, 0xcf, 0x0d, 0x59, 0xbe, 0x0c, 0x39, 0x9c, 0x3d,
  0x93, 0xd8, 0x54, 0x3d, 0xb9, 0x96, 0x15, 0x3d, 0xcc, 0xf8, 0x73, 0xbe,
  0x93, 0x49, 0x1c, 0xbd, 0x37, 0xd8, 0x95, 0x3e, 0xf4, 0x67, 0x6c, 0xbd,
  0x0c, 0xbf, 0x2d, 0x3d, 0x45, 0x89, 0x4e, 0xbe, 0x3f, 0xf9, 0x12, 0xbe,
  0xa2, 0xa6, 0x04, 0xbe, 0x6b, 0xcd, 0x82, 0xbd, 0xdd, 0x70, 0x45, 0xbc,
  0xd2, 0x8e, 0x8e, 0x3e, 0x2e, 0xc6, 0x04, 0xbe, 0x81, 0xc2, 0xa5, 0x3d,
  0x31, 0x82, 0x0b, 0xbe, 0xcd, 0x31, 0xa1, 0xbc, 0xd1, 0xd1, 0xa0, 0x3d,
  0x76, 0xbd, 0x51, 0xbe, 0x9c, 0xd8, 0x99, 0x3c, 0x73, 0x14, 0x55, 0xbe,
  0x7a, 0x34, 0x54, 0x3d, 0xe9, 0x49, 0x7a, 0xbe, 0x2b, 0x6c, 0x01, 0xbe,
  0xab, 0x0d, 0x5c, 0xbb, 0x65, 0x2a, 0xc5, 0x3d, 0xd1, 0x1a, 0xfa, 0x3d,
  0xd4, 0x10, 0xc3, 0x3d, 0xaa, 0x37, 0xc0, 0x3d, 0xe7, 0xff, 0x3a, 0x3d,
  0x45, 0x20, 0x3f, 0x3c, 0x1e, 0xb6, 0x87, 0xbd, 0xfb, 0xa7, 0x5e, 0xbd,
  0x7e, 0xc8, 0x79, 0xbd, 0x0c, 0x36, 0x8e, 0x3d, 0xd5, 0x81, 0x3b, 0xbe,
  0x1e, 0x16, 0x47, 0x3d, 0xc2, 0xdc, 0x38, 0x3e, 0x7a, 0xa8, 0xf5, 0xbd,
  0x36, 0xfc, 0x23, 0xbe, 0x88, 0x8d, 0xa8, 0x3d, 0xe2, 0x27, 0x98, 0xbc,
  0xd3, 0x58, 0xa1, 0x3d, 0x49, 0x36, 0x21, 0x3e, 0x92, 0xdd, 0x92, 0x3c,
  0x45, 0x5e, 0x7e, 0xbe, 0x8a, 0x44, 0xc7, 0xbc, 0xda, 0x3c, 0x7e, 0xbd,
  0x78, 0x08, 0xa7, 0xbc, 0x74, 0xae, 0xb4, 0x3c, 0xfa, 0x6b, 0x1b, 0x3e,
  0x70, 0xfc, 0x45, 0xbe, 0xf4, 0x06, 0x58, 0xbd, 0x7d, 0x06, 0x27, 0x3e,
  0x21, 0x24, 0x24, 0xbe, 0xd7, 0x9b, 0xb3, 0xbd, 0xb5, 0x7d, 0x31, 0x3e,
  0x39, 0x76, 0x44, 0xba, 0x51, 0x18, 0x89, 0xbe, 0x83, 0x70, 0x24, 0xbe,
  0x07, 0x0c, 0xa6, 0x3d, 0x7b, 0x71, 0xf8, 0xbc, 0x95, 0x18, 0xb1, 0xbd,
  0x1d, 0x60, 0x9a, 0xbd, 0xab, 0x37, 0x0e, 0xbe, 0x9b, 0x7d, 0x56, 0x3c,
  0xca, 0xd0, 0xaf, 0xbd, 0xd7, 0x36, 0x6b, 0x3d, 0x10, 0xb0, 0x6d, 0xbd,
  0xc4, 0x8e, 0xa3, 0xbc, 0x77, 0x1e, 0x38, 0xbe, 0xa3, 0xde, 0xe1, 0xbd,
  0xb7, 0xa8, 0xa7, 0x3c, 0xc9, 0x64, 0x6b, 0x3c, 0xd9, 0xc3, 0x91, 0x3d,
  0x4e, 0xb4, 0xab, 0xbd, 0xb6, 0x28, 0xa4, 0xbb, 0x10, 0x8b, 0x30, 0xbe,
  0x29, 0xf0, 0x57, 0xbe, 0xa0, 0x35, 0xc1, 0xbd, 0x1b, 0x85, 0x8b, 0xbd,
  0xd2, 0xa1, 0xa3, 0x3c, 0x4f, 0xe5, 0x75, 0x3d, 0x8f, 0x3e, 0x85, 0x3b,
  0xed, 0xd4, 0x4f, 0xbe, 0xd2, 0xeb, 0x87, 0xbd, 0xf9, 0xec, 0x72, 0xbe,
  0x6f, 0xae, 0x92, 0x3b, 0x83, 0xcf, 0xef, 0x3d, 0x97, 0xb4, 0xc5, 0x3d,
  0x55, 0x02, 0x14, 0xbe, 0x66, 0xbd, 0xe8, 0xbd, 0xdb, 0x91, 0xcf, 0x3d,
  0xeb, 0xa3, 0x08, 0xbe, 0x7e, 0x30, 0x04, 0xbd, 0x0c, 0x1d, 0x89, 0xbd,
  0x79, 0x7a, 0x7d, 0x3a, 0x51, 0xdb, 0x4e, 0xbc, 0x12, 0xd8, 0x13, 0x3e,
  0x67, 0xc7, 0xce, 0xbd, 0x0e, 0x10, 0x0b, 0xbe, 0x26, 0x49, 0x5d, 0xbd,
  0xff, 0x7f, 0x87, 0xbe, 0x21, 0x9d, 0x58, 0x3c, 0xa6, 0x89, 0x16, 0xbe,
  0x37, 0x92, 0x5d, 0xbd, 0x78, 0x98, 0x21, 0xbe, 0xd1, 0x69, 0x06, 0xbe,
  0xf1, 0x72, 0x95, 0xbd, 0xe0, 0x7a, 0x36, 0xbe, 0xb5, 0x61, 0x85, 0xbd,
  0x9a, 0x09, 0x48, 0xbd, 0x3b, 0x4b, 0x2c, 0xba, 0x10, 0x3b, 0xca, 0xbd,
  0x9c, 0x14, 0x3c, 0xbe, 0x02, 0xdf, 0x4a, 0x3d, 0xef, 0xfc, 0xee, 0xb9,
  0x01, 0x6f, 0x98, 0xbd, 0xb7, 0x9a, 0x0f, 0xbe, 0xec, 0x75, 0x2a, 0xbe,
  0x56, 0xb4, 0x16, 0xbe, 0x72, 0x87, 0x96, 0x3d, 0xea, 0x6c, 0x2d, 0xbe,
  0x21, 0x4f, 0x77, 0xbd, 0xef, 0xcd, 0x1a, 0xbe, 0x6b, 0x13, 0x01, 0xbe,
  0xef, 0xa5, 0x5c, 0xbe, 0x63, 0x54, 0x28, 0xbd, 0x91, 0xb9, 0x45, 0xbe,
  0x33, 0xcb, 0x27, 0xbe, 0xfd, 0xd4, 0x02, 0x3e, 0xa7, 0xbe, 0x6c, 0xbe,
  0x28, 0x6b, 0x82, 0xbd, 0x3f, 0x8b, 0x2c, 0xbe, 0x1d, 0x8a, 0x42, 0xbe,
  0x75, 0x56, 0xab, 0x3d, 0xfb, 0x3e, 0x6a, 0xbe, 0x77, 0xd7, 0x3f, 0x3c,
  0x1b, 0xcc, 0x0f, 0xbe, 0x7a, 0xda, 0x0b, 0xbe, 0x24, 0x12, 0x32, 0xbe,
  0x01, 0x7d, 0x1a, 0x3e, 0x4d, 0x5b, 0x93, 0x3c, 0x8b, 0xbd, 0x4c, 0xbe,
  0xfe, 0x94, 0xe4, 0x3d, 0x42, 0xce, 0x99, 0x3d, 0x03, 0x85, 0xc7, 0xbd,
  0x0f, 0x9c, 0x56, 0xbe, 0xfc, 0xf4, 0xc5, 0xbd, 0x4f, 0xa0, 0x56, 0xbd,
  0xfb, 0x57, 0xde, 0xbd, 0xe4, 0x3a, 0x17, 0x3e, 0x32, 0x0c, 0xe5, 0xbd,
  0xaf, 0x17, 0x6f, 0xbe, 0x2f, 0x85, 0x31, 0x3e, 0x87, 0xcb, 0x6f, 0xbe,
  0x56, 0x62, 0xd1, 0x3d, 0xb3, 0x15, 0xef, 0xbd, 0xae, 0xfd, 0x06, 0x3d,
  0x55, 0x8a, 0xbb, 0x3d, 0x10, 0x77, 0x20, 0x3e, 0x88, 0x21, 0x5b, 0xbe,
  0x20, 0x62, 0x3a, 0xbd, 0x67, 0xfc, 0xa5, 0xbc, 0xb8, 0x3d, 0x1d, 0x3e,
  0x46, 0xbd, 0xb2, 0xbd, 0xfe, 0xa0, 0x30, 0xbe, 0x57, 0x5b, 0x2d, 0x3e,
  0x56, 0xc4, 0xba, 0x3d, 0xa9, 0x17, 0xa5, 0x3d, 0x57, 0x86, 0x09, 0xbe,
  0x1f, 0xfa, 0x56, 0xbd, 0x53, 0x77, 0xd4, 0x3d, 0x8d, 0x93, 0x8c, 0xbd,
  0x86, 0xa1, 0x63, 0xbe, 0xf4, 0x0e, 0x23, 0xbe, 0x71, 0x5d, 0x18, 0x3e,
  0x8f, 0x03, 0x31, 0x3d, 0xac, 0x35, 0x70, 0x3d, 0x8b, 0xd8, 0x23, 0xbe,
  0x28, 0xaa, 0x05, 0xbd, 0xf0, 0x03, 0x67, 0xbc, 0xe8, 0xfc, 0x91, 0xbc,
  0xcd, 0x6c, 0xaa, 0xbd, 0xee, 0x5a, 0xf8, 0xbc, 0xc0, 0x0f, 0x21, 0xbc,
  0xc4, 0x96, 0x5b, 0xbe, 0x09, 0x09, 0x98, 0xbe, 0xb0, 0xbd, 0xbb, 0x3c,
  0xf1, 0x49, 0x33, 0x3d, 0x9e, 0xe2, 0x09, 0xbd, 0x39, 0xd2, 0x54, 0xbe,
  0xea, 0xcb, 0xeb, 0x3d, 0x60, 0x6d, 0xf3, 0x3d, 0x25, 0x44, 0x1c, 0xbd,
  0xc1, 0x86, 0x40, 0xbe, 0x4c, 0xca, 0x1b, 0xbe, 0xd4, 0x23, 0x63, 0xbd,
  0x87, 0x49, 0xae, 0xbd, 0x52, 0x00, 0xa2, 0x3d, 0xd7, 0x7c, 0x02, 0x3e,
  0x0d, 0x85, 0x43, 0x3d, 0x1c, 0x11, 0x41, 0xbd, 0x1d, 0x06, 0xa7, 0xbe,
  0xdf, 0x22, 0xfd, 0xbc, 0x0a, 0xc9, 0x03, 0x3d, 0x23, 0x99, 0x51, 0xbe,
  0xfc, 0x59, 0x42, 0x3d, 0xa8, 0x3e, 0x8d, 0x3d, 0xc4, 0x78, 0x74, 0x3d,
  0xf2, 0x56, 0x5e, 0xbe, 0x11, 0x29, 0x3d, 0xbd, 0x4a, 0x4a, 0x31, 0x3d,
  0x46, 0xef, 0x67, 0xbe, 0xba, 0x0b, 0xd2, 0x3b, 0x18, 0x56, 0xb1, 0x3d,
  0x95, 0x2d, 0xf8, 0x3d, 0x41, 0xf8, 0xb6, 0x3d, 0x5a, 0x29, 0x41, 0xbe,
  0x3e, 0x28, 0x9a, 0xbe, 0x35, 0x49, 0x2c, 0xbe, 0x76, 0x2c, 0xf5, 0xbb,
  0xc3, 0x0a, 0x91, 0xbd, 0x49, 0x00, 0xbc, 0xbd, 0xe8, 0xb9, 0x4d, 0x3d,
  0x94, 0xe2, 0x1b, 0x3d, 0x3a, 0xb1, 0x71, 0x3d, 0x6c, 0x19, 0x2f, 0xbe,
  0x06, 0x7b, 0x14, 0x3e, 0x04, 0xff, 0xab, 0xbd, 0xb9, 0xc2, 0x8f, 0x3d,
  0xa4, 0x2d, 0x86, 0xbd, 0xe6, 0x4c, 0xab, 0x3d, 0xe5, 0x5e, 0xa1, 0x3b,
  0x72, 0x7d, 0xd0, 0x3d, 0xec, 0x81, 0x88, 0xbe, 0xe1, 0x81, 0x85, 0x3d,
  0x6c, 0xbf, 0xf4, 0x3d, 0x71, 0x63, 0x13, 0xbd, 0x9a, 0x6a, 0x37, 0xbe,
  0x2e, 0x2d, 0xb4, 0x3d, 0x35, 0xf2, 0xeb, 0x3c, 0xcb, 0x4a, 0x4b, 0xbe,
  0xb8, 0x40, 0x7c, 0xbd, 0x48, 0xe8, 0x16, 0x3e, 0x36, 0x2e, 0x09, 0xbe,
  0x76, 0xbf, 0xbd, 0xbd, 0x0b, 0x01, 0xca, 0x3d, 0xba, 0xed, 0xa0, 0xbd,
  0xfc, 0xa4, 0x51, 0xbe, 0x12, 0xa6, 0x0f, 0x3e, 0xfe, 0xc0, 0xa6, 0xbe,
  0xd9, 0x2d, 0x8f, 0x3d, 0x96, 0x83, 0x10, 0xbe, 0xf2, 0x7d, 0xc8, 0x3d,
  0xf2, 0xc2, 0x37, 0xbe, 0x47, 0x3c, 0x4c, 0xbd, 0xc0, 0x3a, 0xb9, 0xbd,
  0xa0, 0xab, 0x04, 0xbd, 0x67, 0x9f, 0x07, 0xbe, 0x57, 0x2f, 0xd9, 0x3d,
  0x6c, 0x31, 0xd7, 0xbd, 0xcf, 0x80, 0x3d, 0xbe, 0x53, 0x45, 0xf2, 0x3d,
  0xc3, 0xdb, 0xc7, 0x3c, 0xb2, 0xe2, 0x27, 0x3e, 0x86, 0xff, 0x38, 0x3e,
  0xff, 0x73, 0x1e, 0xbd, 0x4a, 0x64, 0x02, 0x3d, 0x62, 0x0e, 0x14, 0x3d,
  0xfd, 0xe7, 0x62, 0xbe, 0x7c, 0x2b, 0xee, 0x3d, 0x1b, 0x59, 0x68, 0xbd,
  0xcf, 0x8d, 0x0f, 0x3e, 0x2f, 0x81, 0x26, 0x3e, 0xa7, 0xaa, 0x77, 0xbe,
  0xa0, 0x4f, 0xfe, 0x3c, 0x19, 0x1c, 0x72, 0x3d, 0x50, 0xb5, 0x71, 0x3d,
  0xa2, 0xb1, 0x4e, 0x3a, 0xf4, 0x61, 0x4b, 0xbe, 0x83, 0x19, 0x08, 0xbe,
  0x5a, 0xb4, 0x9a, 0xbb, 0xf3, 0x76, 0x90, 0x3d, 0xc3, 0x2b, 0xc1, 0x3c,
  0x82, 0xbf, 0x8a, 0xbc, 0xe8, 0xa6, 0x0e, 0xbe, 0xcd, 0xa9, 0xee, 0xbb,
  0x92, 0x92, 0x9f, 0x3c, 0xb2, 0x22, 0x0d, 0xbe, 0x85, 0x57, 0xd7, 0xbd,
  0xaf, 0x15, 0x01, 0x3d, 0x85, 0x63, 0x90, 0xbd, 0xf2, 0xd9, 0x80, 0xbe,
  0xca, 0xbc, 0xfb, 0xbc, 0x64, 0xd8, 0x4f, 0x3e, 0x41, 0xe0, 0xc3, 0x3c,
  0x16, 0x4c, 0x04, 0xbe, 0x73, 0xf6, 0xe3, 0xba, 0xc9, 0xf7, 0x2b, 0xbe,
  0xf1, 0xde, 0xac, 0x3c, 0xd4, 0xd0, 0x42, 0xbe, 0x71, 0xdd, 0xb0, 0xbd,
  0x2a, 0x18, 0xd0, 0xbd, 0xdb, 0xb4, 0x64, 0x3d, 0x50, 0x97, 0x13, 0xbc,
  0xc0, 0x66, 0x06, 0x3e, 0xd3, 0x27, 0x4d, 0x3d, 0x4a, 0x03, 0x81, 0xbc,
  0x05, 0xb2, 0xc7, 0xbd, 0x38, 0x59, 0x4f, 0xbe, 0x25, 0x2a, 0xfd, 0xbd,
  0x87, 0x5f, 0xbb, 0x3d, 0x9c, 0x7c, 0xfe, 0xbd, 0x91, 0xfa, 0xab, 0x3d,
  0x01, 0xde, 0xaf, 0xbe, 0xd8, 0x08, 0xe4, 0xbb, 0x4b, 0x98, 0x68, 0xbe,
  0x1a, 0x4d, 0xfb, 0x3d, 0x8e, 0x3d, 0x1e, 0xbe, 0x98, 0xd1, 0x02, 0xbe,
  0xb7, 0x02, 0x1d, 0xbe, 0xe6, 0x34, 0xd4, 0x3d, 0x0d, 0x85, 0xd7, 0xbd,
  0x6a, 0xb3, 0x61, 0x3c, 0x5c, 0x71, 0x3c, 0xbd, 0x3a, 0xa1, 0xde, 0xbd,
  0xc0, 0xdd, 0x07, 0x3d, 0x3b, 0x16, 0x24, 0x3e, 0xdc, 0x6b, 0x5d, 0xbe,
  0xb2, 0xb4, 0x28, 0x3e, 0x33, 0x30, 0x5a, 0xbe, 0x52, 0x43, 0x13, 0xbe,
  0xec, 0xbe, 0x51, 0x3c, 0xb5, 0xfe, 0x9c, 0xbd, 0x0e, 0xde, 0xe3, 0xbd,
  0xcd, 0x0e, 0x9c, 0x3d, 0x19, 0xde, 0xdc, 0xbd, 0x85, 0x77, 0x89, 0xbd,
  0xf3, 0x49, 0xe5, 0xbd, 0x88, 0x2b, 0xfe, 0xbd, 0x0f, 0x85, 0xa0, 0xbd,
  0xc2, 0xde, 0xcd, 0xbd, 0x90, 0x50, 0x9d, 0xbd, 0xf6, 0xe7, 0x86, 0x3d,
  0x3e, 0x17, 0xc2, 0xbd, 0x4c, 0x06, 0x62, 0x3c, 0xcb, 0x1e, 0xfe, 0x3c,
  0x5a, 0xc4, 0x51, 0xbe, 0x53, 0x61, 0xcf, 0xbd, 0x3d, 0x81, 0x83, 0x3d,
  0x7d, 0x81, 0x26, 0xbe, 0x3a, 0x21, 0xb8, 0xbd, 0x46, 0x9c, 0x14, 0x3e,
  0xde, 0x03, 0xd0, 0xbc, 0xd7, 0xc4, 0x6e, 0x3d, 0x5e, 0xd6, 0x56, 0xbe,
  0xac, 0xcf, 0x99, 0xbe, 0xba, 0x62, 0x73, 0xbc, 0x44, 0x23, 0x8f, 0x3d,
  0xad, 0x11, 0xe6, 0xbd, 0x3c, 0xbf, 0x4f, 0xbd, 0xac, 0x00, 0x29, 0x3e,
  0x97, 0x7b, 0x56, 0xbe, 0x09, 0x98, 0xa2, 0x3d, 0xfc, 0x30, 0x4c, 0x3d,
  0x8a, 0x91, 0xa8, 0xbd, 0x06, 0x8b, 0x03, 0xbc, 0x66, 0x33, 0x56, 0xbd,
  0x2d, 0x23, 0x2c, 0xbd, 0x95, 0xd8, 0xd4, 0x3d, 0x5b, 0xdb, 0x13, 0x3b,
  0x97, 0xf9, 0x0e, 0xbe, 0x0f, 0x7b, 0x20, 0xbe, 0x74, 0x71, 0x9e, 0xbc,
  0x0a, 0x21, 0x62, 0x3d, 0xdd, 0x6e, 0x68, 0x3d, 0x35, 0x34, 0x73, 0x3d,
  0xb1, 0xf6, 0x2d, 0x3c, 0x81, 0x7f, 0x65, 0xbd, 0x82, 0x96, 0x9b, 0xbd,
  0x5d, 0x63, 0x1c, 0x3d, 0x8a, 0x7b, 0xc8, 0x3c, 0x80, 0x67, 0x80, 0xbe,
  0x14, 0x6d, 0x5a, 0xbe, 0x19, 0x9a, 0x0d, 0xbe, 0x09, 0x37, 0xb8, 0xbd,
  0x21, 0x12, 0x72, 0xbc, 0x56, 0xc8, 0x64, 0xbe, 0x20, 0xa9, 0x60, 0xbe,
  0xf2, 0xf4, 0x5d, 0x3c, 0x2f, 0xb4, 0xcc, 0x3c, 0x8b, 0x94, 0x2d, 0x3e,
  0x95, 0xfd, 0x6c, 0x3c, 0xe7, 0x61, 0xee, 0xbc, 0x5e, 0x65, 0xa5, 0xbe,
  0x47, 0xec, 0xd3, 0xbb, 0x7b, 0x83, 0x09, 0x3e, 0xe4, 0xe4, 0x0c, 0x3d,
  0x6c, 0x64, 0xb6, 0x3a, 0x9a, 0x99, 0x0d, 0x3c, 0x2a, 0x54, 0x3f, 0xbe,
  0x85, 0xf1, 0xcb, 0x3d, 0xad, 0x4a, 0x9e, 0x3d, 0xf7, 0x96, 0x5c, 0x3d,
  0x39, 0xb0, 0xd3, 0xbc, 0xac, 0x22, 0x76, 0xbe, 0x7a, 0xd9, 0xa0, 0xbc,
  0x37, 0xd9, 0xc1, 0xbd, 0xed, 0xb9, 0xc9, 0x3d, 0xa4, 0xb2, 0x20, 0x3e,
  0xe8, 0xda, 0xe0, 0xbd, 0xbe, 0xd8, 0x14, 0xbd, 0x1a, 0x46, 0x20, 0xbe,
  0x5a, 0xb4, 0x13, 0x3e, 0x72, 0x53, 0x34, 0xbc, 0xca, 0x45, 0x7a, 0xbe,
  0x76, 0xfd, 0x16, 0xbe, 0xc8, 0xbc, 0xc9, 0xbd, 0x33, 0xd7, 0xf9, 0xbd,
  0x72, 0x60, 0x94, 0xbb, 0x54, 0xaf, 0x82, 0xbe, 0x1f, 0x4e, 0x9d, 0x3d,
  0x15, 0xd2, 0x11, 0x3e, 0x23, 0x25, 0x15, 0x3c, 0x94, 0xfb, 0x42, 0x3d,
  0xf5, 0x6c, 0x02, 0xbd, 0xcb, 0x22, 0x70, 0xbe, 0x6f, 0xd0, 0xd0, 0x3d,
  0xfa, 0xad, 0x01, 0x3e, 0x2c, 0x8d, 0x2a, 0x3d, 0x73, 0xaf, 0xca, 0x3c,
  0xeb, 0xbc, 0x94, 0x3d, 0x76, 0x08, 0xe1, 0x3c, 0xfd, 0x3a, 0x91, 0xbd,
  0x56, 0x67, 0xbd, 0xbd, 0x2e, 0xa0, 0x17, 0xbe, 0x3d, 0x6b, 0x33, 0xbd,
  0xcb, 0x88, 0x08, 0xbe, 0xd7, 0xb8, 0x81, 0x3d, 0x9f, 0x11, 0xf3, 0xbd,
  0x27, 0xc9, 0x67, 0xbe, 0xf7, 0xaf, 0x3d, 0x3d, 0x53, 0x61, 0xed, 0xbd,
  0x11, 0x7e, 0x4c, 0xbe, 0x67, 0x64, 0x6c, 0x3c, 0x69, 0x24, 0x5e, 0x3c,
  0x36, 0x06, 0x19, 0xbe, 0x3b, 0x2a, 0x5e, 0xbe, 0xb7, 0xe0, 0x9a, 0xbd,
  0xa2, 0xda, 0xd2, 0x3d, 0x11, 0x73, 0x50, 0xbe, 0xdb, 0xbe, 0xd7, 0x3c,
  0xdf, 0x0b, 0x00, 0xbe, 0x59, 0x31, 0x09, 0xbe, 0xf9, 0x1d, 0x33, 0x3e,
  0xee, 0x8f, 0xec, 0xbd, 0x2e, 0x17, 0x8a, 0x3d, 0x15, 0xc7, 0xf4, 0xbb,
  0x4a, 0x0b, 0xa2, 0xbd, 0x1e, 0x05, 0xbe, 0xbc, 0x3c, 0x4d, 0xce, 0x3d,
  0xe9, 0xd3, 0xbd, 0x3d, 0x9e, 0x7a, 0x25, 0x3d, 0x5e, 0xd7, 0x57, 0xbe,
  0xec, 0x72, 0x6c, 0xbc, 0x4f, 0xc2, 0x7b, 0xbe, 0x52, 0xde, 0x85, 0xbe,
  0x2d, 0x3a, 0x44, 0x3e, 0x0b, 0x3b, 0x9b, 0x3d, 0xa0, 0xe8, 0x88, 0xbe,
  0x3c, 0x19, 0x78, 0x3d, 0x1a, 0xe2, 0x41, 0xbe, 0x9e, 0x97, 0x05, 0x3c,
  0x33, 0x07, 0xe0, 0xbc, 0xf7, 0xe7, 0x84, 0xbe, 0x2e, 0xaf, 0x13, 0x3d,
  0x7e, 0xbb, 0xfa, 0x3c, 0x8c, 0x55, 0x77, 0xbd, 0x6e, 0x15, 0xc3, 0xbc,
  0x7e, 0xfe, 0x1c, 0xbe, 0xe5, 0xab, 0xc7, 0x3d, 0x39, 0x60, 0xf7, 0x3d,
  0xd2, 0xbd, 0x13, 0xbe, 0x12, 0x28, 0x9f, 0xbd, 0x00, 0x96, 0x9b, 0xbd,
  0x6f, 0xe9, 0xb5, 0x3d, 0xec, 0xc5, 0x21, 0x3d, 0x2e, 0x9e, 0x34, 0xbe,
  0x49, 0x63, 0x3f, 0xbe, 0x14, 0xfd, 0x2f, 0x3e, 0x25, 0x5c, 0x0b, 0x3b,
  0xb2, 0x49, 0xc3, 0xbd, 0xce, 0x80, 0x0c, 0xbe, 0x06, 0xd2, 0x3d, 0xbe,
  0x0e, 0x0b, 0xea, 0x3b, 0x25, 0x37, 0xe1, 0x3d, 0x5a, 0x2b, 0x01, 0xbe,
  0xd2, 0xc8, 0x83, 0x3d, 0x01, 0xdf, 0x68, 0xbc, 0x8f, 0x7a, 0x3a, 0x3c,
  0xea, 0x3f, 0xff, 0x3b, 0x23, 0x9c, 0x83, 0xbe, 0x16, 0x55, 0xba, 0xbd,
  0x35, 0x29, 0xac, 0xbb, 0x0e, 0xb0, 0xb3, 0xbd, 0x6e, 0xf6, 0x1e, 0x3e,
  0xb4, 0x77, 0x0e, 0xbc, 0xdc, 0x51, 0x4c, 0xbe, 0xfb, 0x68, 0x95, 0xbd,
  0x66, 0xb9, 0x3f, 0x3c, 0xfd, 0x64, 0x28, 0xbd, 0x65, 0x05, 0x1a, 0xbe,
  0x2e, 0xd4, 0x39, 0xbe, 0xd6, 0x67, 0x1a, 0xbe, 0x01, 0xde, 0xef, 0xbd,
  0xea, 0xdf, 0x0e, 0x3d, 0xb8, 0x47, 0x89, 0xbd, 0x6f, 0xc9, 0x8f, 0xbe,
  0x81, 0x50, 0x3b, 0xbd, 0x2c, 0x88, 0x6a, 0xbc, 0xae, 0x58, 0xa5, 0x3d,
  0x28, 0x7b, 0x48, 0xbe, 0x75, 0x1e, 0x62, 0xbe, 0xbd, 0x3f, 0xb1, 0xbd,
  0xb6, 0x08, 0x8b, 0x3d, 0xc7, 0x73, 0xc8, 0x3d, 0x6d, 0xe5, 0x50, 0xbe,
  0x96, 0x03, 0xf1, 0x3d, 0xda, 0xb3, 0xc3, 0x3d, 0x06, 0x40, 0x39, 0x3d,
  0x98, 0xda, 0x56, 0x3d, 0xa3, 0xb2, 0x11, 0x3e, 0xe9, 0x76, 0xa6, 0xbd,
  0xe7, 0x3a, 0x6f, 0xbd, 0xf6, 0x74, 0x24, 0x3b, 0x63, 0xb7, 0x2d, 0xbd,
  0x13, 0xf0, 0x5f, 0xbe, 0xc8, 0x50, 0xce, 0x3b, 0x02, 0x60, 0x9d, 0xbd,
  0xe1, 0x42, 0x05, 0x3e, 0xaf, 0x68, 0xa0, 0x3c, 0xa5, 0xb1, 0x47, 0xbe,
  0xc9, 0x25, 0x26, 0xbe, 0x23, 0xb5, 0x25, 0xbe, 0x51, 0xf7, 0x0e, 0xbe,
  0x91, 0x7d, 0x74, 0xbe, 0x05, 0xd9, 0x50, 0xbe, 0xac, 0xd9, 0x94, 0xbd,
  0x6c, 0x7a, 0xd7, 0xbd, 0x2e, 0xda, 0x60, 0x3c, 0xd8, 0x60, 0x36, 0xbd,
  0x8d, 0x61, 0xd3, 0x3d, 0x9e, 0xe9, 0x37, 0xbe, 0x30, 0xf4, 0x0e, 0xbe,
  0xe5, 0xd5, 0x8c, 0xbe, 0x9d, 0x73, 0xc8, 0xbd, 0xd5, 0x66, 0x92, 0xbd,
  0xde, 0x9f, 0x83, 0xbe, 0xdb, 0x49, 0x8a, 0xbe, 0xee, 0x66, 0xb4, 0x3d,
  0x59, 0x2f, 0x29, 0xbc, 0xee, 0x2a, 0x84, 0xbe, 0x99, 0xea, 0x3c, 0xbe,
  0x2c, 0x2a, 0x22, 0xba, 0x79, 0x26, 0x0b, 0xbe, 0x84, 0xae, 0x3d, 0x3c,
  0x49, 0xf5, 0x07, 0x3e, 0x9c, 0xfb, 0x41, 0xbe, 0xaf, 0xfe, 0x94, 0xbc,
  0x82, 0x6f, 0x71, 0xbe, 0x13, 0x60, 0x79, 0xbd, 0x14, 0x29, 0x9c, 0x3d,
  0x08, 0x82, 0x91, 0xbd, 0xd5, 0x86, 0x1a, 0xbd, 0x4c, 0x7e, 0xb5, 0x3d,
  0x7c, 0x89, 0x66, 0xbe, 0x68, 0xbc, 0x10, 0xbe, 0x7b, 0x4e, 0xe8, 0xbd,
  0xda, 0x0a, 0x83, 0xbe, 0xb6, 0x02, 0x1c, 0x3e, 0x10, 0x98, 0xc5, 0xbb,
  0x7e, 0x2a, 0x82, 0xbd, 0x1d, 0x56, 0x5a, 0xbd, 0xba, 0x41, 0x17, 0xbe,
  0x83, 0x96, 0x78, 0xbe, 0xa9, 0xa4, 0x69, 0x3d, 0xb9, 0x6e, 0x08, 0xbd,
  0xcf, 0xaf, 0xf3, 0x3d, 0x3f, 0x67, 0x8a, 0xbd, 0x54, 0x58, 0x20, 0x3e,
  0x8a, 0x61, 0x3f, 0xbe, 0x9e, 0xd9, 0xb8, 0x3d, 0x5d, 0x83, 0x6e, 0xbd,
  0xad, 0x48, 0x81, 0xbe, 0x62, 0xb8, 0x08, 0xbe, 0x8d, 0x56, 0x7b, 0x3d,
  0xed, 0xc7, 0xc8, 0x3d, 0xd2, 0x25, 0xe1, 0xbd, 0xbc, 0x4c, 0xe6, 0xbd,
  0xc5, 0x2f, 0x0e, 0x3e, 0xd6, 0x3c, 0x49, 0xbd, 0x3b, 0x2c, 0x0a, 0xbe,
  0xbc, 0x8f, 0x22, 0xbe, 0xab, 0xe6, 0x2d, 0xbc, 0x71, 0xa6, 0x66, 0x3d,
  0x82, 0x90, 0x61, 0xbd, 0xbf, 0xaa, 0xa8, 0x3c, 0x76, 0x29, 0xe4, 0x3d,
  0x6b, 0xef, 0xbb, 0x3d, 0xe2, 0x1c, 0xa6, 0xbd, 0x54, 0x18, 0x35, 0xbb,
  0x30, 0x09, 0x68, 0x3c, 0x29, 0xee, 0x9b, 0xbe, 0xfa, 0x19, 0x31, 0x3d,
  0x04, 0xb4, 0x85, 0xbd, 0xf2, 0x65, 0x2e, 0xbe, 0x49, 0x2b, 0x3e, 0xbd,
  0xd5, 0xb8, 0xa6, 0xbd, 0x36, 0x28, 0x4d, 0xbe, 0x64, 0x2f, 0x82, 0xbb,
  0x27, 0x70, 0x8b, 0xbd, 0xa6, 0xed, 0x51, 0xbe, 0xe9, 0xf7, 0x64, 0xbe,
  0x12, 0x1a, 0x5d, 0xbd, 0x67, 0x21, 0x93, 0xbd, 0xc7, 0x26, 0x35, 0xbe,
  0x5c, 0xc7, 0xcb, 0x3d, 0xdf, 0x3d, 0x29, 0xbe, 0x9e, 0x7d, 0xfb, 0x3c,
  0xd3, 0x52, 0x95, 0x3d, 0x00, 0xbe, 0x34, 0xbd, 0x2b, 0xfe, 0x9b, 0xbd,
  0xa1, 0x74, 0xa3, 0x3d, 0x6f, 0xd6, 0xb8, 0xbd, 0x52, 0x5f, 0x0d, 0xbe,
  0xc0, 0x94, 0x38, 0x3e, 0xc2, 0xa4, 0xc8, 0x3c, 0x5e, 0x1b, 0xa2, 0xbd,
  0xf5, 0x4a, 0x85, 0xbe, 0x79, 0x68, 0xa5, 0x3d, 0xe4, 0xef, 0x50, 0xbe,
  0x6b, 0x5a, 0x93, 0x3d, 0xbb, 0x2f, 0x86, 0xbb, 0xdf, 0x06, 0xe8, 0x3d,
  0x81, 0x43, 0x83, 0xbe, 0x33, 0x87, 0xe3, 0xbc, 0x60, 0xc7, 0x05, 0x3e,
  0xf9, 0x2e, 0x06, 0x3e, 0x07, 0xd2, 0xb7, 0x3d, 0x4e, 0xbc, 0xb2, 0x3d,
  0x06, 0xf2, 0x8a, 0xbe, 0xdf, 0xe6, 0x90, 0xbd, 0xb3, 0xd1, 0xfd, 0x3d,
  0x60, 0x84, 0x19, 0xbe, 0xed, 0x2b, 0x50, 0x3d, 0x7d, 0x31, 0x1f, 0xbd,
  0x1d, 0xf4, 0x20, 0x3e, 0x41, 0xb3, 0xfd, 0xbd, 0xb6, 0x38, 0x8a, 0xbb,
  0xc0, 0x42, 0x39, 0x3d, 0xd6, 0x75, 0x7c, 0xbd, 0x26, 0xf2, 0x5d, 0xbe,
  0x32, 0x9e, 0x0b, 0xbe, 0x19, 0x4d, 0x9a, 0xbb, 0x48, 0x51, 0xd1, 0xbd,
  0xf6, 0x3d, 0xa3, 0xbd, 0x7b, 0x68, 0x1c, 0xbd, 0xea, 0x6a, 0xd8, 0xbd,
  0xee, 0xdd, 0x63, 0x3c, 0xf1, 0xcb, 0x89, 0xbd, 0x6d, 0x6b, 0x9a, 0xbd,
  0x0b, 0xbb, 0x38, 0xbe, 0xda, 0xbb, 0xcc, 0xbd, 0x02, 0x97, 0xcb, 0x3d,
  0x3f, 0xd1, 0x89, 0xbe, 0xb6, 0x5e, 0x9c, 0x3c, 0xb5, 0x03, 0x1a, 0xbe,
  0x06, 0x25, 0xc4, 0xbd, 0x9d, 0x36, 0x91, 0xbc, 0x46, 0x43, 0xa2, 0xbd,
  0xcb, 0xcb, 0x3a, 0xbd, 0x1d, 0x41, 0x60, 0xbe, 0xda, 0x2c, 0x66, 0xbe,
  0x43, 0xf8, 0x43, 0x3e, 0x91, 0x2a, 0x3c, 0x3c, 0xb8, 0x54, 0xd5, 0xbd,
  0x58, 0x4a, 0x31, 0xbd, 0x0b, 0x67, 0x19, 0xbe, 0x3f, 0xb0, 0x7a, 0xbd,
  0x1b, 0x86, 0x29, 0xbe, 0xb6, 0x45, 0x84, 0x3d, 0xe4, 0x13, 0x03, 0xbe,
  0x6c, 0x70, 0xa7, 0xbe, 0x0c, 0x3c, 0x90, 0xbd, 0xfa, 0x82, 0x4c, 0xbe,
  0x9e, 0x8e, 0x42, 0xbe, 0x93, 0xfb, 0x74, 0xbe, 0x6e, 0xd5, 0x60, 0xbc,
  0x32, 0x62, 0x3b, 0xbe, 0xe0, 0x60, 0x71, 0x3d, 0x05, 0xc8, 0x19, 0xbe,
  0xd4, 0xaa, 0xa8, 0xbd, 0x56, 0x69, 0xe6, 0xbd, 0x03, 0x81, 0x38, 0x3c,
  0x4b, 0xc6, 0x7c, 0xbe, 0x90, 0x4a, 0x45, 0x3d, 0x0f, 0x07, 0x74, 0xbe,
  0xe1, 0xf6, 0x18, 0xbd, 0x0a, 0x01, 0xad, 0x3d, 0x93, 0x3b, 0x20, 0x3d,
  0x2c, 0x6a, 0x12, 0x3e, 0x72, 0xd5, 0x93, 0xbd, 0x35, 0x50, 0x28, 0x3e,
  0x34, 0xbb, 0x6a, 0x3d, 0x58, 0xc7, 0xf6, 0xbd, 0x6b, 0x2f, 0x18, 0x3d,
  0x13, 0xdc, 0xdd, 0x3c, 0x1e, 0x4a, 0x68, 0xbc, 0xda, 0x11, 0x4c, 0x3d,
  0xa8, 0x1b, 0xf7, 0xbc, 0xc8, 0x5c, 0x34, 0xbe, 0x25, 0xda, 0xa7, 0x3d,
  0x77, 0x55, 0x72, 0xbe, 0x12, 0x74, 0x23, 0x3e, 0xaf, 0x30, 0xca, 0xbd,
  0x0a, 0xa2, 0x4a, 0xbe, 0x52, 0x68, 0xf4, 0x3d, 0x91, 0x46, 0x33, 0xbd,
  0xa4, 0xda, 0xbe, 0xbb, 0xa1, 0x05, 0x68, 0xbd, 0x73, 0x3b, 0x37, 0xbe,
  0xc6, 0xbb, 0x8b, 0x3d, 0xd2, 0xc7, 0x82, 0xbd, 0xce, 0x99, 0x1b, 0xbd,
  0x51, 0x97, 0xa9, 0x3d, 0x19, 0x00, 0xab, 0x3c, 0x22, 0x04, 0x15, 0x3e,
  0x73, 0xc0, 0x23, 0x3e, 0x5e, 0x0a, 0xb9, 0xbd, 0xc8, 0x92, 0xb4, 0x3d,
  0xe2, 0x36, 0x6e, 0xbe, 0x62, 0x53, 0x7b, 0xbd, 0xbf, 0x15, 0x33, 0x3d,
  0xe5, 0x6b, 0x15, 0xbd, 0x19, 0xce, 0xa1, 0x3d, 0xdb, 0xdc, 0x15, 0x3e,
  0x52, 0x85, 0xa0, 0xbe, 0xce, 0x26, 0x30, 0x3e, 0x6e, 0xdc, 0x20, 0xbe,
  0xfc, 0x9d, 0x31, 0xbd, 0x29, 0x12, 0xae, 0x3c, 0x9f, 0x3f, 0xda, 0x3d,
  0xc9, 0xa4, 0x2a, 0xbe, 0x6e, 0x22, 0xc7, 0xbd, 0xcd, 0x00, 0x74, 0xbd,
  0xfc, 0xcf, 0x88, 0xbd, 0x69, 0x72, 0xfe, 0xbd, 0xc7, 0xed, 0x91, 0xbd,
  0x6b, 0x5e, 0x9c, 0xbd, 0x4f, 0xc8, 0xec, 0xbd, 0xa8, 0x28, 0x39, 0x3d,
  0x70, 0x70, 0x4f, 0xbd, 0x6e, 0x49, 0x73, 0xbd, 0x32, 0x7b, 0x57, 0xbe,
  0x11, 0xb3, 0x1a, 0xbd, 0xea, 0xa1, 0x51, 0xbe, 0xf2, 0x1d, 0xb4, 0x3c,
  0x03, 0x1c, 0x18, 0xbe, 0xa8, 0xdf, 0x00, 0x3e, 0x22, 0x7f, 0xfe, 0xbd,
  0xde, 0x01, 0xd0, 0x3b, 0x04, 0xec, 0x28, 0x3c, 0x21, 0xf7, 0x5b, 0xbc,
  0x10, 0x80, 0x52, 0x3d, 0x94, 0xb6, 0xb0, 0x3d, 0x13, 0x9f, 0x43, 0xbd,
  0x8e, 0x69, 0x03, 0x3e, 0xd9, 0x05, 0x37, 0xbe, 0x40, 0xaa, 0xd7, 0xbd,
  0x36, 0xfe, 0xba, 0x3d, 0x60, 0x6b, 0xc4, 0xbd, 0x91, 0x9a, 0xdb, 0xbd,
  0xe2, 0xad, 0x88, 0xbd, 0xe5, 0x2e, 0x9a, 0xbd, 0xc7, 0x83, 0xab, 0xbd,
  0xa7, 0xd1, 0xe4, 0x3d, 0x28, 0x6e, 0x70, 0xbd, 0x8c, 0x6f, 0x26, 0x3e,
  0xc9, 0x57, 0xcf, 0xbd, 0x8c, 0x87, 0x9a, 0x3c, 0xf8, 0x9c, 0xf7, 0x3d,
  0x6b, 0x41, 0x45, 0xbe, 0xe8, 0xd4, 0xc6, 0x3d, 0x02, 0x36, 0x40, 0xbe,
  0x51, 0x9d, 0x33, 0xbe, 0xd2, 0x75, 0xa7, 0xbd, 0x98, 0x38, 0xd5, 0x3d,
  0x01, 0x18, 0x0d, 0x3e, 0x71, 0xbf, 0xa7, 0xbd, 0x10, 0x64, 0x21, 0x3e,
  0x1a, 0x54, 0xab, 0xbd, 0xf6, 0x3c, 0x3d, 0xbd, 0x46, 0xe4, 0x77, 0xbe,
  0xa3, 0xd6, 0x35, 0x3e, 0x76, 0xe2, 0x47, 0xbe, 0x47, 0xd6, 0xc5, 0xbc,
  0x2e, 0x78, 0x0b, 0x3e, 0x8b, 0xfb, 0xe9, 0xbd, 0x8c, 0x46, 0x03, 0xbe,
  0x60, 0xc7, 0x39, 0xbe, 0xfc, 0x41, 0xdc, 0xbd, 0xbc, 0x42, 0x9e, 0xbc,
  0x9e, 0x60, 0x0b, 0xbd, 0x64, 0x5e, 0x74, 0x3d, 0x98, 0x27, 0x43, 0xbd,
  0xa7, 0xc3, 0x51, 0x3d, 0x82, 0xc3, 0x62, 0xbd, 0x4d, 0x4c, 0xd0, 0x3d,
  0xcf, 0x12, 0x2b, 0xbe, 0xa3, 0x25, 0xba, 0x3d, 0xc2, 0x15, 0x64, 0xbd,
  0xd9, 0x48, 0xf6, 0xbd, 0xba, 0x1d, 0x0d, 0xbe, 0xcd, 0x30, 0x1a, 0xbe,
  0xa4, 0x42, 0x0f, 0xbe, 0x6a, 0x9c, 0x97, 0x3d, 0x08, 0x09, 0xae, 0xbe,
  0x08, 0xa7, 0x9e, 0x3c, 0x4a, 0x15, 0xb1, 0xbd, 0x19, 0x91, 0x37, 0xbe,
  0x7e, 0x71, 0x44, 0xbe, 0x98, 0x93, 0x8b, 0x3d, 0x9c, 0x5c, 0x25, 0xbe,
  0xa8, 0x5d, 0xae, 0x3c, 0xd2, 0xf8, 0x8b, 0xbd, 0x9a, 0xcd, 0x53, 0x3e,
  0x9e, 0x6e, 0x19, 0xbc, 0xbf, 0xe4, 0x9a, 0x3d, 0xb6, 0xef, 0x22, 0xbe,
  0xdc, 0x8f, 0xba, 0xbd, 0x03, 0xc7, 0x2c, 0x3e, 0xd5, 0x63, 0xb8, 0x3c,
  0x21, 0x36, 0xbc, 0xbd, 0x5e, 0x6b, 0x08, 0xbe, 0xbe, 0x8e, 0x95, 0x3d,
  0xdc, 0x66, 0xea, 0xbc, 0x2f, 0x51, 0x05, 0xbe, 0xea, 0xc5, 0x9e, 0xbc,
  0xd0, 0x61, 0x8a, 0xbc, 0xb4, 0xea, 0x51, 0xbe, 0x9a, 0x4f, 0x5e, 0xbe,
  0xc1, 0x07, 0x0d, 0xbd, 0xa0, 0x2c, 0xb9, 0xbd, 0x3b, 0x6e, 0x2e, 0xbe,
  0x34, 0xda, 0x05, 0xbe, 0x82, 0x7d, 0x86, 0xbb, 0xa0, 0xe0, 0xc1, 0x3b,
  0x42, 0x7c, 0xff, 0xbd, 0x44, 0xee, 0x96, 0xbe, 0x15, 0x80, 0x27, 0x3c,
  0xe5, 0x5b, 0xc1, 0xbd, 0x12, 0x23, 0xc8, 0xbc, 0xbf, 0xb5, 0x91, 0x3c,
  0x92, 0xac, 0xa1, 0xbd, 0x4b, 0x7a, 0x8c, 0xbd, 0x0c, 0x9a, 0x68, 0x3c,
  0xb6, 0x33, 0xff, 0xbd, 0xe4, 0x0d, 0x1e, 0x3d, 0x4e, 0x01, 0x9d, 0xbd,
  0x11, 0x5e, 0x2e, 0xbe, 0x79, 0x38, 0x0e, 0xbe, 0x77, 0xf3, 0x3a, 0x3e,
  0xf7, 0x59, 0x23, 0x3c, 0x91, 0x77, 0x7d, 0x3d, 0x6b, 0x14, 0x15, 0xbe,
  0xd2, 0x70, 0x68, 0xbe, 0xc9, 0x05, 0xba, 0x3c, 0xa5, 0xb2, 0x4b, 0xbe,
  0x36, 0x6e, 0x81, 0xbe, 0xb6, 0x8f, 0x6f, 0xbe, 0x0c, 0x89, 0x5f, 0xbd,
  0xf7, 0x6c, 0x34, 0x3e, 0xff, 0x42, 0xb1, 0xbd, 0x5e, 0x56, 0x15, 0x3e,
  0xec, 0xf1, 0x2a, 0xbe, 0x5e, 0x01, 0x5d, 0xbe, 0xb7, 0x57, 0x0a, 0x3e,
  0x2a, 0x10, 0x37, 0x3d, 0xac, 0x63, 0xe9, 0xbd, 0x94, 0x76, 0x22, 0xbe,
  0x22, 0x1c, 0x96, 0xbe, 0xb6, 0x43, 0x05, 0xbe, 0x77, 0x8a, 0x7a, 0xbb,
  0x5b, 0xde, 0x6a, 0xbe, 0xa2, 0xc2, 0x9c, 0x3d, 0x23, 0x2d, 0xec, 0x3d,
  0x23, 0x2f, 0xab, 0x3d, 0x0f, 0xdc, 0xf5, 0x3d, 0x25, 0x45, 0x64, 0xbe,
  0x53, 0x2a, 0x95, 0xbc, 0x6e, 0xcc, 0x27, 0xbe, 0x10, 0x1e, 0xa2, 0x3d,
  0xe5, 0xd2, 0x24, 0x3e, 0x37, 0xfc, 0x00, 0x3e, 0x91, 0xcd, 0xeb, 0x3d,
  0x5c, 0x67, 0x51, 0x3d, 0x1f, 0x75, 0x52, 0xbe, 0x69, 0x1f, 0x62, 0xbd,
  0xfa, 0xb1, 0x66, 0xbd, 0x07, 0x3f, 0x4c, 0xbe, 0xe1, 0x4c, 0x21, 0xbe,
  0xc7, 0xa1, 0x9e, 0x3d, 0xaa, 0x62, 0xad, 0x3d, 0x27, 0xdf, 0x38, 0xbe,
  0x4a, 0x66, 0x72, 0x3d, 0x14, 0x28, 0x8d, 0xbd, 0x9a, 0x84, 0x9a, 0xbe,
  0x81, 0xb8, 0x30, 0x3d, 0x19, 0xa8, 0xc8, 0x3d, 0xe9, 0x6d, 0x00, 0xbe,
  0x24, 0x7b, 0x65, 0xbd, 0xb5, 0xf8, 0x60, 0x3e, 0xdd, 0xb8, 0xad, 0x3d,
  0xd7, 0x85, 0xcc, 0x3e, 0x08, 0x81, 0x8e, 0xbe, 0x2d, 0xf7, 0xbb, 0xbd,
  0xab, 0xf5, 0x20, 0xbd, 0x03, 0x2d, 0xd5, 0x3d, 0xf5, 0xe2, 0xb6, 0x3d,
  0x5c, 0x22, 0x4e, 0xbe, 0x6a, 0x74, 0x7f, 0xbc, 0xb2, 0x71, 0x0b, 0x3d,
  0x5a, 0x28, 0x38, 0xbe, 0x5f, 0xc9, 0x9b, 0x3d, 0x24, 0x25, 0x04, 0x3e,
  0xad, 0xf5, 0x1a, 0xbe, 0xd2, 0x8a, 0x2c, 0xbe, 0xcd, 0xb0, 0xc3, 0xbd,
  0xda, 0x6c, 0x09, 0xbd, 0x70, 0x3a, 0x77, 0x3e, 0x40, 0x3e, 0x8d, 0xbd,
  0x76, 0x54, 0x09, 0xbe, 0xfe, 0xcc, 0x8b, 0x3d, 0x0e, 0xd9, 0xa3, 0xbd,
  0x00, 0x01, 0x07, 0x3e, 0x36, 0x42, 0x25, 0xbe, 0xd2, 0xd2, 0xd3, 0xbd,
  0x71, 0xa0, 0xcb, 0x3d, 0xa7, 0x69, 0xcb, 0xbd, 0x55, 0x28, 0x88, 0x3c,
  0x31, 0x4d, 0x1e, 0xbe, 0x35, 0x13, 0xe2, 0xbd, 0xd4, 0x46, 0xec, 0xbd,
  0x44, 0x9d, 0x23, 0xbe, 0xc7, 0x45, 0x51, 0xbd, 0x25, 0x94, 0x11, 0x3e,
  0xe6, 0x24, 0x84, 0x3d, 0x09, 0x5c, 0x90, 0xbd, 0x89, 0x04, 0x03, 0x3e,
  0x54, 0xc9, 0x15, 0x3d, 0xf7, 0xd7, 0x2d, 0x3e, 0x17, 0xd9, 0x57, 0x3d,
  0x76, 0x6e, 0xcf, 0xbc, 0x87, 0x13, 0x22, 0x3d, 0xee, 0x82, 0x20, 0xbe,
  0x05, 0x61, 0xe5, 0xbb, 0xe4, 0x1a, 0xcb, 0x3c, 0x31, 0x64, 0x0d, 0xbe,
  0x58, 0x5b, 0x05, 0xbe, 0x8e, 0xe7, 0xb3, 0xbd, 0xf8, 0x94, 0xe3, 0xbc,
  0xc3, 0x98, 0x93, 0x3d, 0x83, 0xe1, 0xc3, 0x3c, 0x7d, 0x18, 0x12, 0xbe,
  0x74, 0x53, 0x21, 0xbc, 0x45, 0xd0, 0xce, 0x3d, 0xf3, 0x50, 0x8e, 0x3d,
  0x19, 0x2d, 0x61, 0xbe, 0xc4, 0x7d, 0x72, 0x3d, 0x47, 0x02, 0x26, 0x3e,
  0xe4, 0x22, 0x07, 0xbe, 0x1e, 0xa0, 0x61, 0x3d, 0x47, 0x29, 0xd4, 0xbd,
  0x08, 0x18, 0x2c, 0xbd, 0xba, 0x30, 0x8a, 0x3d, 0x0b, 0x82, 0xa9, 0xbd,
  0xbf, 0x82, 0x76, 0xbc, 0x89, 0x98, 0x90, 0x3e, 0x41, 0xc8, 0x92, 0x3b,
  0xe5, 0x33, 0xb1, 0xbd, 0x3b, 0x8f, 0xf3, 0x3d, 0x80, 0x6f, 0xe0, 0x3d,
  0x2e, 0x95, 0xf3, 0x3c, 0x3e, 0x4c, 0xff, 0xbd, 0x54, 0xaf, 0x76, 0x3d,
  0x85, 0x31, 0x14, 0x3e, 0x97, 0x13, 0x01, 0xbe, 0x28, 0x0c, 0x1c, 0x3c,
  0xe3, 0x94, 0x08, 0x3e, 0xa9, 0x23, 0x89, 0xbd, 0xd5, 0xae, 0x00, 0xbe,
  0x72, 0x93, 0x60, 0xbe, 0xe6, 0x2a, 0xef, 0xbd, 0x82, 0xf0, 0xda, 0x3d,
  0xef, 0x45, 0x80, 0xbd, 0x31, 0x7e, 0x73, 0xbe, 0xe2, 0x1c, 0x85, 0x3d,
  0x12, 0xe2, 0x98, 0x3d, 0xb9, 0x18, 0x92, 0xbd, 0xcb, 0xa2, 0x90, 0xbe,
  0x1a, 0x04, 0x82, 0xbd, 0xec, 0xae, 0x9b, 0x3e, 0x53, 0x07, 0x86, 0xbc,
  0xfc, 0x12, 0xe7, 0x3d, 0x4e, 0x30, 0x87, 0x3c, 0x60, 0x50, 0x1d, 0xbe,
  0x2c, 0xb3, 0xae, 0x3d, 0x1d, 0xec, 0xe7, 0x3c, 0x56, 0x31, 0x1a, 0xbc,
  0x7d, 0x08, 0x10, 0x3e, 0x5f, 0xb2, 0x3a, 0xbe, 0xde, 0x5a, 0x2d, 0x3e,
  0xad, 0x99, 0x34, 0xbe, 0x85, 0x31, 0xeb, 0x3d, 0xba, 0x08, 0xf6, 0x3c,
  0x37, 0x3e, 0xde, 0x3d, 0xdf, 0xa1, 0x21, 0x3d, 0x34, 0x85, 0xe8, 0xbc,
  0xf9, 0xa3, 0x18, 0xbe, 0x91, 0x3f, 0x22, 0xbc, 0xe3, 0x41, 0x25, 0x3e,
  0x9b, 0x67, 0x04, 0xbe, 0xa7, 0x1f, 0xd3, 0x3b, 0xf4, 0x19, 0x97, 0xbc,
  0x55, 0xf0, 0xbf, 0xbd, 0x4c, 0xa0, 0x5d, 0xbd, 0x85, 0xc7, 0x70, 0xbd,
  0x59, 0xef, 0x82, 0xbd, 0x34, 0x8c, 0x68, 0xbe, 0x33, 0x26, 0x98, 0x3d,
  0xfc, 0x03, 0xe0, 0xbd, 0xd9, 0xfb, 0x26, 0xbc, 0x60, 0x15, 0x2f, 0xbe,
  0x63, 0xf7, 0x63, 0xbb, 0x4f, 0xdd, 0xb5, 0xbd, 0xe5, 0x4d, 0x9f, 0x3d,
  0x45, 0xc7, 0x90, 0xbd, 0xea, 0x60, 0x75, 0xbe, 0xd0, 0xe5, 0x16, 0x3e,
  0x92, 0xe8, 0x3a, 0x3d, 0x90, 0x9f, 0x9d, 0xbd, 0x90, 0xa2, 0x89, 0xbd,
  0xf8, 0xb6, 0x50, 0xbd, 0x17, 0xd6, 0x4b, 0xbd, 0x16, 0xd2, 0x88, 0xbe,
  0x9d, 0x6e, 0x16, 0xbd, 0x4b, 0x8d, 0x86, 0x3d, 0x13, 0xc7, 0x43, 0xbe,
  0x3d, 0x4c, 0x98, 0x3d, 0xcb, 0x52, 0x11, 0x3e, 0x6c, 0x7d, 0x84, 0xbd,
  0x6e, 0xcc, 0xe7, 0xbd, 0x1c, 0x82, 0xb9, 0x3c, 0xb9, 0x26, 0x62, 0xbe,
  0xf1, 0xb9, 0x25, 0x3e, 0x16, 0xb5, 0xf7, 0xbd, 0x89, 0xfa, 0x84, 0xbe,
  0x3a, 0xb4, 0x7a, 0x3d, 0xeb, 0x3e, 0x0d, 0x3d, 0xdc, 0x03, 0x90, 0x3d,
  0x5d, 0xbf, 0x1a, 0xbe, 0xc2, 0x0d, 0x9d, 0x3d, 0xa0, 0xfe, 0x56, 0xbd,
  0xff, 0x5e, 0x5b, 0xbe, 0xb7, 0xf4, 0x1c, 0x3d, 0x0a, 0xea, 0x60, 0xbe,
  0x86, 0x68, 0x70, 0xbe, 0x99, 0xa4, 0x39, 0xbe, 0x33, 0x6e, 0x6d, 0xbd,
  0x49, 0x93, 0xa9, 0x3c, 0x1a, 0x7c, 0xbe, 0xba, 0x39, 0xee, 0x98, 0x3d,
  0xc6, 0x50, 0x5a, 0xbd, 0xe7, 0x81, 0x35, 0x3e, 0xd1, 0xc6, 0x1c, 0x3e,
  0xb0, 0xd4, 0x53, 0xbe, 0x50, 0x5c, 0x9e, 0x3c, 0x27, 0x47, 0xcd, 0xbd,
  0xf5, 0x86, 0x2d, 0x3d, 0x7e, 0xe6, 0x7a, 0x3d, 0x8e, 0xba, 0x1f, 0xbd,
  0x2b, 0xfa, 0x9f, 0xbd, 0x6e, 0x9b, 0x1d, 0xbe, 0x6f, 0x63, 0x51, 0xbe,
  0x18, 0x82, 0x33, 0x3e, 0x3f, 0x2e, 0x11, 0xbe, 0xe5, 0x11, 0x8c, 0xbd,
  0xb3, 0x07, 0x70, 0x3c, 0xe9, 0x95, 0xf9, 0xbd, 0x00, 0x49, 0xad, 0x3d,
  0x31, 0x1f, 0xd2, 0x3c, 0x32, 0xdb, 0x65, 0x3d, 0xc4, 0x6b, 0x7d, 0xbe,
  0xef, 0x4d, 0x5f, 0xbe, 0x3a, 0x45, 0x56, 0xbe, 0x34, 0xb4, 0xe8, 0xbc,
  0x75, 0xae, 0x8b, 0xbd, 0x70, 0x8e, 0xcc, 0xba, 0x64, 0x44, 0xb3, 0x3b,
  0x48, 0x6b, 0x23, 0x3b, 0x71, 0x78, 0x02, 0x3e, 0xbf, 0x53, 0xe7, 0x3d,
  0xd7, 0x3b, 0x0e, 0x3e, 0xd6, 0x4c, 0x23, 0x3d, 0x92, 0x7d, 0x65, 0xbd,
  0x3a, 0x60, 0x9e, 0xbd, 0xa2, 0x9a, 0x89, 0xbc, 0x1d, 0xeb, 0x9f, 0xbc,
  0x56, 0x1e, 0x5c, 0xbd, 0x42, 0xaa, 0x57, 0xbe, 0xa7, 0xb9, 0x74, 0xbd,
  0x82, 0xa9, 0x59, 0xbe, 0x7e, 0x91, 0xa4, 0xbd, 0x69, 0xde, 0x5a, 0xbe,
  0x95, 0x78, 0xf1, 0xbd, 0xf8, 0xa0, 0x90, 0xbd, 0x5e, 0x60, 0x7c, 0xbd,
  0xbc, 0x4d, 0x24, 0x3b, 0xac, 0xd6, 0x52, 0xbe, 0xc5, 0xc3, 0x19, 0xbe,
  0xdc, 0xfb, 0xbf, 0xbd, 0xac, 0xdb, 0x5b, 0x3b, 0x9c, 0xb6, 0xa4, 0xbd,
  0x58, 0xd6, 0x33, 0xbe, 0x8f, 0x06, 0x7c, 0x3c, 0xf4, 0xed, 0xe4, 0x3d,
  0x77, 0xdb, 0xf5, 0xbd, 0x89, 0x03, 0xf8, 0x3d, 0xfd, 0x8c, 0x52, 0xbe,
  0xd8, 0x98, 0xc7, 0xbc, 0x63, 0xee, 0x96, 0xbe, 0x63, 0xba, 0xed, 0xbd,
  0x9b, 0x52, 0x34, 0xbe, 0x94, 0xbc, 0xd9, 0x3d, 0x2b, 0xce, 0x83, 0x3c,
  0xfa, 0xf5, 0xb4, 0x39, 0x29, 0xcb, 0x3b, 0xbc, 0x46, 0xc4, 0x1e, 0xbe,
  0x95, 0xfe, 0xce, 0xbd, 0x06, 0x3e, 0xf5, 0xbc, 0x46, 0x1d, 0x1a, 0xbe,
  0x3a, 0x55, 0xdd, 0x3c, 0x47, 0xc9, 0x60, 0xbd, 0xc4, 0x7b, 0xdd, 0xbc,
  0xb2, 0x7a, 0x20, 0x3d, 0x36, 0x17, 0x15, 0xbe, 0xcd, 0x28, 0x2c, 0xbe,
  0xdf, 0xac, 0x6d, 0xbe, 0x2e, 0x66, 0x35, 0x3e, 0x6c, 0x1f, 0x30, 0xbe,
  0x4d, 0xe5, 0x0b, 0x3e, 0x55, 0x37, 0xce, 0x3c, 0xf2, 0x6b, 0xca, 0xbc,
  0x78, 0xf3, 0x67, 0xba, 0xe5, 0x7d, 0xc7, 0x3d, 0xe2, 0x64, 0x39, 0xbe,
  0xa4, 0x26, 0x8d, 0xbb, 0xe5, 0xdd, 0x54, 0xbd, 0x79, 0xb2, 0xa8, 0xbd,
  0x37, 0x9a, 0x19, 0xbe, 0x96, 0x4b, 0x85, 0xbe, 0x14, 0x7d, 0x49, 0x3e,
  0x0e, 0x61, 0x38, 0xbe, 0x3c, 0x7e, 0x49, 0xbd, 0x45, 0x0b, 0x8b, 0xbd,
  0xf3, 0xf0, 0xaa, 0x3c, 0x94, 0x9a, 0x91, 0xbd, 0x54, 0x0b, 0xe2, 0x3d,
  0x7a, 0x59, 0x8d, 0xbd, 0x99, 0x13, 0x23, 0xbe, 0x34, 0xb0, 0x0a, 0x3e,
  0x2a, 0x43, 0x43, 0xbe, 0x2b, 0xbb, 0xa8, 0x3d, 0x2e, 0x15, 0x4c, 0xbe,
  0x76, 0xf4, 0x0e, 0x3e, 0x98, 0x09, 0xd9, 0x3d, 0x9c, 0xf9, 0x2a, 0xbd,
  0xcd, 0x89, 0x05, 0x3e, 0x5f, 0xf3, 0x8b, 0xbe, 0xc8, 0xb4, 0xbd, 0xbd,
  0xaa, 0xa7, 0xb9, 0xbd, 0x7f, 0x7b, 0x72, 0xbc, 0x52, 0x20, 0x0f, 0x3e,
  0x1c, 0xad, 0x00, 0xbd, 0xc5, 0xff, 0x5a, 0xbe, 0xc4, 0x4f, 0xe8, 0xbd,
  0x18, 0x5c, 0x62, 0xbd, 0xdf, 0x3c, 0xa0, 0xbd, 0xce, 0xa4, 0x3a, 0xbb,
  0x96, 0x34, 0x36, 0xbe, 0xb4, 0x5d, 0x05, 0x3e, 0x1c, 0x86, 0x30, 0xbc,
  0x1f, 0xc7, 0xd1, 0x3d, 0x3d, 0xf6, 0x76, 0x3c, 0x1d, 0x70, 0x86, 0xbe,
  0x00, 0x7b, 0x99, 0xbd, 0x7b, 0xba, 0x32, 0xbe, 0xea, 0xc1, 0x4c, 0xbe,
  0x3d, 0xbc, 0x48, 0xbd, 0x42, 0x26, 0x98, 0xbd, 0xd0, 0x5e, 0x74, 0xbe,
  0x1e, 0xf1, 0x93, 0x3d, 0x65, 0x09, 0x80, 0xbc, 0xa1, 0x8d, 0x49, 0xbb,
  0x68, 0xa9, 0xd3, 0xbd, 0x9c, 0xb6, 0xca, 0xbd, 0xfd, 0x06, 0xd6, 0x3c,
  0x15, 0x31, 0xde, 0x3d, 0x44, 0xca, 0x39, 0xbd, 0x22, 0x61, 0x84, 0x3b,
  0xf3, 0x99, 0x62, 0xbe, 0x34, 0xac, 0x9a, 0x3d, 0xc7, 0x13, 0x88, 0xbc,
  0xa4, 0x8d, 0x46, 0xbd, 0x5b, 0x2a, 0x19, 0xbe, 0x21, 0x08, 0x84, 0x3d,
  0xd6, 0x61, 0xf2, 0xbd, 0x6c, 0x6f, 0x7d, 0xbd, 0x46, 0x50, 0x17, 0x3b,
  0x9d, 0xd6, 0x50, 0xbe, 0xb7, 0x68, 0xf8, 0x3d, 0xbd, 0xbb, 0x9f, 0xbd,
  0x0b, 0x64, 0x0a, 0xbe, 0x28, 0x08, 0x89, 0xbd, 0x9f, 0x91, 0x5c, 0xbe,
  0x29, 0x68, 0x1a, 0x3c, 0xd4, 0xc3, 0xfc, 0xbd, 0xe3, 0x47, 0x85, 0x3d,
  0x6b, 0xb4, 0x87, 0x3c, 0x45, 0x86, 0x53, 0xbe, 0x59, 0x70, 0x6c, 0xbe,
  0xaa, 0xac, 0xb9, 0x3d, 0xe0, 0x77, 0x91, 0xbe, 0x43, 0x1e, 0x49, 0x3e,
  0x39, 0x75, 0xff, 0xbc, 0x62, 0xfd, 0xff, 0xff, 0x10, 0x00, 0x00, 0x00,
  0x07, 0x00, 0x00, 0x00, 0x14, 0x00, 0x00, 0x00, 0x2c, 0x00, 0x00, 0x00,
  0x02, 0x00, 0x00, 0x00, 0x10, 0x00, 0x00, 0x00, 0x70, 0x00, 0x00, 0x00,
  0x17, 0x00, 0x00, 0x00, 0x73, 0x65, 0x71, 0x75, 0x65, 0x6e, 0x74, 0x69,
  0x61, 0x6c, 0x2f, 0x64, 0x65, 0x6e, 0x73, 0x65, 0x2f, 0x4d, 0x61, 0x74,
  0x4d, 0x75, 0x6c, 0x00, 0xcc, 0xfc, 0xff, 0xff, 0xd6, 0xfd, 0xff, 0xff,
  0x04, 0x00, 0x00, 0x00, 0x08, 0x00, 0x00, 0x00, 0xff, 0xff, 0xff, 0xff,
  0x70, 0x00, 0x00, 0x00, 0x00, 0x00, 0x0e, 0x00, 0x18, 0x00, 0x08, 0x00,
  0x07, 0x00, 0x0c, 0x00, 0x10, 0x00, 0x14, 0x00, 0x0e, 0x00, 0x00, 0x00,
  0x00, 0x00, 0x00, 0x02, 0x10, 0x00, 0x00, 0x00, 0x06, 0x00, 0x00, 0x00,
  0x10, 0x00, 0x00, 0x00, 0x2c, 0x00, 0x00, 0x00, 0x01, 0x00, 0x00, 0x00,
  0x02, 0x00, 0x00, 0x00, 0x18, 0x00, 0x00, 0x00, 0x73, 0x65, 0x71, 0x75,
  0x65, 0x6e, 0x74, 0x69, 0x61, 0x6c, 0x2f, 0x66, 0x6c, 0x61, 0x74, 0x74,
  0x65, 0x6e, 0x2f, 0x43, 0x6f, 0x6e, 0x73, 0x74, 0x00, 0x00, 0x00, 0x00,
  0x34, 0xfd, 0xff, 0xff, 0x3e, 0xfe, 0xff, 0xff, 0x04, 0x00, 0x00, 0x00,
  0x10, 0x00, 0x00, 0x00, 0x25, 0x86, 0x03, 0x40, 0x71, 0x4a, 0x88, 0xbf,
  0x86, 0xa7, 0xc2, 0xbe, 0x22, 0x7d, 0x07, 0xc0, 0x26, 0xfe, 0xff, 0xff,
  0x10, 0x00, 0x00, 0x00, 0x05, 0x00, 0x00, 0x00, 0x10, 0x00, 0x00, 0x00,
  0x44, 0x00, 0x00, 0x00, 0x01, 0x00, 0x00, 0x00, 0x04, 0x00, 0x00, 0x00,
  0x32, 0x00, 0x00, 0x00, 0x73, 0x65, 0x71, 0x75, 0x65, 0x6e, 0x74, 0x69,
  0x61, 0x6c, 0x2f, 0x64, 0x65, 0x6e, 0x73, 0x65, 0x5f, 0x31, 0x2f, 0x42,
  0x69, 0x61, 0x73, 0x41, 0x64, 0x64, 0x2f, 0x52, 0x65, 0x61, 0x64, 0x56,
  0x61, 0x72, 0x69, 0x61, 0x62, 0x6c, 0x65, 0x4f, 0x70, 0x2f, 0x72, 0x65,
  0x73, 0x6f, 0x75, 0x72, 0x63, 0x65, 0x00, 0x00, 0xa8, 0xfd, 0xff, 0xff,
  0xb2, 0xfe, 0xff, 0xff, 0x04, 0x00, 0x00, 0x00, 0x40, 0x00, 0x00, 0x00,
  0xa9, 0xc3, 0xd8, 0x3d, 0xdb, 0xd7, 0xbd, 0x3c, 0x07, 0xc9, 0x10, 0xbe,
  0x1f, 0x87, 0xb2, 0x3e, 0xce, 0x48, 0xd4, 0x3e, 0x10, 0x7e, 0xe1, 0xbd,
  0x4f, 0xe6, 0xd3, 0xbd, 0x21, 0x76, 0xbf, 0xbd, 0x08, 0x28, 0x08, 0xbe,
  0xcd, 0x8a, 0x31, 0xbe, 0x7e, 0x0a, 0xfb, 0xbd, 0x4b, 0x7e, 0xea, 0xbd,
  0xaf, 0x6d, 0xc1, 0xbd, 0x5e, 0x11, 0xc3, 0x3e, 0xbf, 0x70, 0xfb, 0xbd,
  0x2c, 0xbd, 0x1a, 0xbe, 0xca, 0xfe, 0xff, 0xff, 0x10, 0x00, 0x00, 0x00,
  0x04, 0x00, 0x00, 0x00, 0x10, 0x00, 0x00, 0x00, 0x44, 0x00, 0x00, 0x00,
  0x01, 0x00, 0x00, 0x00, 0x10, 0x00, 0x00, 0x00, 0x30, 0x00, 0x00, 0x00,
  0x73, 0x65, 0x71, 0x75, 0x65, 0x6e, 0x74, 0x69, 0x61, 0x6c, 0x2f, 0x64,
  0x65, 0x6e, 0x73, 0x65, 0x2f, 0x42, 0x69, 0x61, 0x73, 0x41, 0x64, 0x64,
  0x2f, 0x52, 0x65, 0x61, 0x64, 0x56, 0x61, 0x72, 0x69, 0x61, 0x62, 0x6c,
  0x65, 0x4f, 0x70, 0x2f, 0x72, 0x65, 0x73, 0x6f, 0x75, 0x72, 0x63, 0x65,
  0x00, 0x00, 0x00, 0x00, 0x4c, 0xfe, 0xff, 0xff, 0x56, 0xff, 0xff, 0xff,
  0x04, 0x00, 0x00, 0x00, 0x40, 0x00, 0x00, 0x00, 0x3e, 0x1a, 0x79, 0xbe,
  0x4d, 0x68, 0xbe, 0x3d, 0x4f, 0x08, 0x80, 0xbc, 0x36, 0xe6, 0x4c, 0x3d,
  0xb0, 0xbf, 0x72, 0xbe, 0x79, 0xb7, 0xbe, 0x3d, 0x00, 0x23, 0x06, 0x3f,
  0xc2, 0xe1, 0x85, 0xbe, 0xd9, 0x61, 0x88, 0x3d, 0xc7, 0x05, 0x92, 0xbd,
  0x48, 0x5a, 0xea, 0xbd, 0xe4, 0x66, 0x03, 0xbe, 0xa2, 0x69, 0x53, 0xbe,
  0xe3, 0x5d, 0xd9, 0xbd, 0xd5, 0x41, 0x5a, 0x3e, 0xe4, 0x95, 0xb1, 0xbe,
  0x6e, 0xff, 0xff, 0xff, 0x10, 0x00, 0x00, 0x00, 0x03, 0x00, 0x00, 0x00,
  0x10, 0x00, 0x00, 0x00, 0x48, 0x00, 0x00, 0x00, 0x01, 0x00, 0x00, 0x00,
  0x10, 0x00, 0x00, 0x00, 0x33, 0x00, 0x00, 0x00, 0x73, 0x65, 0x71, 0x75,
  0x65, 0x6e, 0x74, 0x69, 0x61, 0x6c, 0x2f, 0x63, 0x6f, 0x6e, 0x76, 0x32,
  0x64, 0x5f, 0x31, 0x2f, 0x42, 0x69, 0x61, 0x73, 0x41, 0x64, 0x64, 0x2f,
  0x52, 0x65, 0x61, 0x64, 0x56, 0x61, 0x72, 0x69, 0x61, 0x62, 0x6c, 0x65,
  0x4f, 0x70, 0x2f, 0x72, 0x65, 0x73, 0x6f, 0x75, 0x72, 0x63, 0x65, 0x00,
  0x04, 0x00, 0x06, 0x00, 0x04, 0x00, 0x00, 0x00, 0x00, 0x00, 0x06, 0x00,
  0x08, 0x00, 0x04, 0x00, 0x06, 0x00, 0x00, 0x00, 0x04, 0x00, 0x00, 0x00,
  0x20, 0x00, 0x00, 0x00, 0x30, 0x71, 0x91, 0xbe, 0x95, 0x80, 0x4a, 0xbe,
  0xbd, 0x79, 0x3a, 0xbf, 0x4c, 0xfb, 0xa0, 0x3d, 0x12, 0x42, 0xad, 0xbc,
  0x37, 0x95, 0x92, 0xbe, 0xf8, 0xd5, 0xab, 0xbe, 0x9c, 0x2e, 0xa6, 0x3d,
  0x00, 0x00, 0x0e, 0x00, 0x14, 0x00, 0x04, 0x00, 0x00, 0x00, 0x08, 0x00,
  0x0c, 0x00, 0x10, 0x00, 0x0e, 0x00, 0x00, 0x00, 0x10, 0x00, 0x00, 0x00,
  0x02, 0x00, 0x00, 0x00, 0x10, 0x00, 0x00, 0x00, 0x44, 0x00, 0x00, 0x00,
  0x01, 0x00, 0x00, 0x00, 0x08, 0x00, 0x00, 0x00, 0x31, 0x00, 0x00, 0x00,
  0x73, 0x65, 0x71, 0x75, 0x65, 0x6e, 0x74, 0x69, 0x61, 0x6c, 0x2f, 0x63,
  0x6f, 0x6e, 0x76, 0x32, 0x64, 0x2f, 0x42, 0x69, 0x61, 0x73, 0x41, 0x64,
  0x64, 0x2f, 0x52, 0x65, 0x61, 0x64, 0x56, 0x61, 0x72, 0x69, 0x61, 0x62,
  0x6c, 0x65, 0x4f, 0x70, 0x2f, 0x72, 0x65, 0x73, 0x6f, 0x75, 0x72, 0x63,
  0x65, 0x00, 0x00, 0x00, 0x90, 0xff, 0xff, 0xff, 0x14, 0x00, 0x18, 0x00,
  0x04, 0x00, 0x00, 0x00, 0x08, 0x00, 0x0c, 0x00, 0x10, 0x00, 0x00, 0x00,
  0x00, 0x00, 0x14, 0x00, 0x14, 0x00, 0x00, 0x00, 0x14, 0x00, 0x00, 0x00,
  0x01, 0x00, 0x00, 0x00, 0x20, 0x00, 0x00, 0x00, 0x44, 0x00, 0x00, 0x00,
  0x2c, 0x00, 0x00, 0x00, 0x04, 0x00, 0x00, 0x00, 0x01, 0x00, 0x00, 0x00,
  0x40, 0x00, 0x00, 0x00, 0x03, 0x00, 0x00, 0x00, 0x01, 0x00, 0x00, 0x00,
  0x0c, 0x00, 0x00, 0x00, 0x63, 0x6f, 0x6e, 0x76, 0x32, 0x64, 0x5f, 0x69,
  0x6e, 0x70, 0x75, 0x74, 0x00, 0x00, 0x00, 0x00, 0x04, 0x00, 0x00, 0x00,
  0xff, 0xff, 0xff, 0xff, 0x40, 0x00, 0x00, 0x00, 0x03, 0x00, 0x00, 0x00,
  0x01, 0x00, 0x00, 0x00, 0xfc, 0xff, 0xff, 0xff, 0x04, 0x00, 0x04, 0x00,
  0x04, 0x00, 0x00, 0x00

};


unsigned int model_tflite_len = 13120;// Fill the int in `src/model.cc` here
